// model.h - TensorFlow lite model - 2021-08-10 18:07:04.783644

#define MODEL_ALIGN __attribute__((aligned(4)))

const unsigned char model_data[] MODEL_ALIGN = {
    0x1C, 0x00, 0x00, 0x00, 0x54, 0x46, 0x4C, 0x33, 
    0x14, 0x00, 0x20, 0x00, 0x04, 0x00, 0x08, 0x00, 
    0x0C, 0x00, 0x10, 0x00, 0x14, 0x00, 0x00, 0x00, 
    0x18, 0x00, 0x1C, 0x00, 0x14, 0x00, 0x00, 0x00, 
    0x03, 0x00, 0x00, 0x00, 0x18, 0x00, 0x00, 0x00, 
    0x1C, 0x00, 0x00, 0x00, 0xA8, 0x00, 0x00, 0x00, 
    0x1C, 0x00, 0x00, 0x00, 0x50, 0x00, 0x00, 0x00, 
    0x48, 0x00, 0x00, 0x00, 0x01, 0x00, 0x00, 0x00, 
    0xC4, 0x02, 0x00, 0x00, 0x01, 0x00, 0x00, 0x00, 
    0xB0, 0x00, 0x00, 0x00, 0x0C, 0x00, 0x00, 0x00, 
    0xCC, 0x07, 0x00, 0x00, 0xC8, 0x07, 0x00, 0x00, 
    0xC8, 0x06, 0x00, 0x00, 0x2C, 0x06, 0x00, 0x00, 
    0xBC, 0x05, 0x00, 0x00, 0x44, 0x05, 0x00, 0x00, 
    0xAC, 0x03, 0x00, 0x00, 0x34, 0x03, 0x00, 0x00, 
    0xAC, 0x07, 0x00, 0x00, 0xA8, 0x07, 0x00, 0x00, 
    0xA4, 0x07, 0x00, 0x00, 0x3C, 0x00, 0x00, 0x00, 
    0x00, 0x00, 0x00, 0x00, 0x01, 0x00, 0x00, 0x00, 
    0x0C, 0x00, 0x00, 0x00, 0x08, 0x00, 0x0C, 0x00, 
    0x04, 0x00, 0x08, 0x00, 0x08, 0x00, 0x00, 0x00, 
    0x08, 0x00, 0x00, 0x00, 0x0B, 0x00, 0x00, 0x00, 
    0x13, 0x00, 0x00, 0x00, 0x6D, 0x69, 0x6E, 0x5F, 
    0x72, 0x75, 0x6E, 0x74, 0x69, 0x6D, 0x65, 0x5F, 
    0x76, 0x65, 0x72, 0x73, 0x69, 0x6F, 0x6E, 0x00, 
    0x9E, 0xF9, 0xFF, 0xFF, 0x04, 0x00, 0x00, 0x00, 
    0x10, 0x00, 0x00, 0x00, 0x31, 0x2E, 0x35, 0x2E, 
    0x30, 0x00, 0x00, 0x00, 0x00, 0x00, 0x00, 0x00, 
    0x00, 0x00, 0x00, 0x00, 0x0F, 0x00, 0x00, 0x00, 
    0x4D, 0x4C, 0x49, 0x52, 0x20, 0x43, 0x6F, 0x6E, 
    0x76, 0x65, 0x72, 0x74, 0x65, 0x64, 0x2E, 0x00, 
    0x00, 0x00, 0x0E, 0x00, 0x18, 0x00, 0x04, 0x00, 
    0x08, 0x00, 0x0C, 0x00, 0x10, 0x00, 0x14, 0x00, 
    0x0E, 0x00, 0x00, 0x00, 0x14, 0x00, 0x00, 0x00, 
    0x3C, 0x00, 0x00, 0x00, 0x40, 0x00, 0x00, 0x00, 
    0x44, 0x00, 0x00, 0x00, 0x50, 0x00, 0x00, 0x00, 
    0x0A, 0x00, 0x00, 0x00, 0xBC, 0x06, 0x00, 0x00, 
    0x48, 0x06, 0x00, 0x00, 0x9C, 0x05, 0x00, 0x00, 
    0x0C, 0x05, 0x00, 0x00, 0xB4, 0x04, 0x00, 0x00, 
    0x3C, 0x04, 0x00, 0x00, 0xA4, 0x02, 0x00, 0x00, 
    0xE4, 0x01, 0x00, 0x00, 0xEC, 0x00, 0x00, 0x00, 
    0x60, 0x00, 0x00, 0x00, 0x01, 0x00, 0x00, 0x00, 
    0x00, 0x00, 0x00, 0x00, 0x01, 0x00, 0x00, 0x00, 
    0x09, 0x00, 0x00, 0x00, 0x03, 0x00, 0x00, 0x00, 
    0x6C, 0x01, 0x00, 0x00, 0x98, 0x00, 0x00, 0x00, 
    0x10, 0x00, 0x00, 0x00, 0x04, 0x00, 0x00, 0x00, 
    0x6D, 0x61, 0x69, 0x6E, 0x00, 0x00, 0x00, 0x00, 
    0x8A, 0xFF, 0xFF, 0xFF, 0x00, 0x00, 0x00, 0x08, 
    0x18, 0x00, 0x00, 0x00, 0x0C, 0x00, 0x00, 0x00, 
    0x04, 0x00, 0x00, 0x00, 0x64, 0xF9, 0xFF, 0xFF, 
    0x01, 0x00, 0x00, 0x00, 0x09, 0x00, 0x00, 0x00, 
    0x03, 0x00, 0x00, 0x00, 0x08, 0x00, 0x00, 0x00, 
    0x06, 0x00, 0x00, 0x00, 0x03, 0x00, 0x00, 0x00, 
    0xDC, 0xF9, 0xFF, 0xFF, 0x14, 0x00, 0x00, 0x00, 
    0x0A, 0x00, 0x00, 0x00, 0x24, 0x00, 0x00, 0x00, 
    0x30, 0x00, 0x00, 0x00, 0x10, 0x00, 0x00, 0x00, 
    0x02, 0x00, 0x00, 0x00, 0x01, 0x00, 0x00, 0x00, 
    0x01, 0x00, 0x00, 0x00, 0x02, 0x00, 0x00, 0x00, 
    0xFF, 0xFF, 0xFF, 0xFF, 0x01, 0x00, 0x00, 0x00, 
    0x08, 0x00, 0x00, 0x00, 0x49, 0x64, 0x65, 0x6E, 
    0x74, 0x69, 0x74, 0x79, 0x00, 0x00, 0x00, 0x00, 
    0xC8, 0xFA, 0xFF, 0xFF, 0x00, 0x00, 0x0E, 0x00, 
    0x14, 0x00, 0x00, 0x00, 0x08, 0x00, 0x0C, 0x00, 
    0x07, 0x00, 0x10, 0x00, 0x0E, 0x00, 0x00, 0x00, 
    0x00, 0x00, 0x00, 0x08, 0x1C, 0x00, 0x00, 0x00, 
    0x10, 0x00, 0x00, 0x00, 0x04, 0x00, 0x00, 0x00, 
    0x2E, 0xFF, 0xFF, 0xFF, 0x00, 0x00, 0x00, 0x01, 
    0x01, 0x00, 0x00, 0x00, 0x08, 0x00, 0x00, 0x00, 
    0x03, 0x00, 0x00, 0x00, 0x07, 0x00, 0x00, 0x00, 
    0x05, 0x00, 0x00, 0x00, 0x02, 0x00, 0x00, 0x00, 
    0x64, 0xFA, 0xFF, 0xFF, 0x14, 0x00, 0x00, 0x00, 
    0x09, 0x00, 0x00, 0x00, 0x24, 0x00, 0x00, 0x00, 
    0x78, 0x00, 0x00, 0x00, 0x10, 0x00, 0x00, 0x00, 
    0x02, 0x00, 0x00, 0x00, 0x01, 0x00, 0x00, 0x00, 
    0x09, 0x00, 0x00, 0x00, 0x02, 0x00, 0x00, 0x00, 
    0xFF, 0xFF, 0xFF, 0xFF, 0x09, 0x00, 0x00, 0x00, 
    0x52, 0x00, 0x00, 0x00, 0x73, 0x65, 0x71, 0x75, 
    0x65, 0x6E, 0x74, 0x69, 0x61, 0x6C, 0x5F, 0x31, 
    0x2F, 0x64, 0x65, 0x6E, 0x73, 0x65, 0x5F, 0x33, 
    0x2F, 0x4D, 0x61, 0x74, 0x4D, 0x75, 0x6C, 0x3B, 
    0x73, 0x65, 0x71, 0x75, 0x65, 0x6E, 0x74, 0x69, 
    0x61, 0x6C, 0x5F, 0x31, 0x2F, 0x64, 0x65, 0x6E, 
    0x73, 0x65, 0x5F, 0x33, 0x2F, 0x42, 0x69, 0x61, 
    0x73, 0x41, 0x64, 0x64, 0x3B, 0x73, 0x65, 0x71, 
    0x75, 0x65, 0x6E, 0x74, 0x69, 0x61, 0x6C, 0x5F, 
    0x31, 0x2F, 0x64, 0x65, 0x6E, 0x73, 0x65, 0x5F, 
    0x33, 0x2F, 0x52, 0x65, 0x6C, 0x75, 0x00, 0x00, 
    0x98, 0xFB, 0xFF, 0xFF, 0x00, 0x00, 0x0E, 0x00, 
    0x16, 0x00, 0x00, 0x00, 0x08, 0x00, 0x0C, 0x00, 
    0x07, 0x00, 0x10, 0x00, 0x0E, 0x00, 0x00, 0x00, 
    0x00, 0x00, 0x00, 0x08, 0x24, 0x00, 0x00, 0x00, 
    0x18, 0x00, 0x00, 0x00, 0x0C, 0x00, 0x00, 0x00, 
    0x00, 0x00, 0x06, 0x00, 0x08, 0x00, 0x07, 0x00, 
    0x06, 0x00, 0x00, 0x00, 0x00, 0x00, 0x00, 0x01, 
    0x01, 0x00, 0x00, 0x00, 0x07, 0x00, 0x00, 0x00, 
    0x03, 0x00, 0x00, 0x00, 0x00, 0x00, 0x00, 0x00, 
    0x04, 0x00, 0x00, 0x00, 0x01, 0x00, 0x00, 0x00, 
    0x0C, 0x00, 0x10, 0x00, 0x0B, 0x00, 0x00, 0x00, 
    0x0C, 0x00, 0x04, 0x00, 0x0C, 0x00, 0x00, 0x00, 
    0x09, 0x00, 0x00, 0x00, 0x00, 0x00, 0x00, 0x09, 
    0x01, 0x00, 0x00, 0x00, 0x58, 0xFB, 0xFF, 0xFF, 
    0x14, 0x00, 0x00, 0x00, 0x08, 0x00, 0x00, 0x00, 
    0x24, 0x00, 0x00, 0x00, 0x78, 0x00, 0x00, 0x00, 
    0x10, 0x00, 0x00, 0x00, 0x02, 0x00, 0x00, 0x00, 
    0x01, 0x00, 0x00, 0x00, 0x09, 0x00, 0x00, 0x00, 
    0x02, 0x00, 0x00, 0x00, 0xFF, 0xFF, 0xFF, 0xFF, 
    0x09, 0x00, 0x00, 0x00, 0x52, 0x00, 0x00, 0x00, 
    0x73, 0x65, 0x71, 0x75, 0x65, 0x6E, 0x74, 0x69, 
    0x61, 0x6C, 0x5F, 0x31, 0x2F, 0x64, 0x65, 0x6E, 
    0x73, 0x65, 0x5F, 0x32, 0x2F, 0x4D, 0x61, 0x74, 
    0x4D, 0x75, 0x6C, 0x3B, 0x73, 0x65, 0x71, 0x75, 
    0x65, 0x6E, 0x74, 0x69, 0x61, 0x6C, 0x5F, 0x31, 
    0x2F, 0x64, 0x65, 0x6E, 0x73, 0x65, 0x5F, 0x32, 
    0x2F, 0x42, 0x69, 0x61, 0x73, 0x41, 0x64, 0x64, 
    0x3B, 0x73, 0x65, 0x71, 0x75, 0x65, 0x6E, 0x74, 
    0x69, 0x61, 0x6C, 0x5F, 0x31, 0x2F, 0x64, 0x65, 
    0x6E, 0x73, 0x65, 0x5F, 0x32, 0x2F, 0x52, 0x65, 
    0x6C, 0x75, 0x00, 0x00, 0x84, 0xFB, 0xFF, 0xFF, 
    0x86, 0xFC, 0xFF, 0xFF, 0x04, 0x00, 0x00, 0x00, 
    0x24, 0x00, 0x00, 0x00, 0xDA, 0xB6, 0x8B, 0x3F, 
    0xCB, 0xE6, 0x1C, 0x40, 0x5F, 0x0C, 0x26, 0xBE, 
    0x89, 0x91, 0x1D, 0x3F, 0x0C, 0x5A, 0x5A, 0x3E, 
    0x15, 0x28, 0xFC, 0xBE, 0x2E, 0xE2, 0xBB, 0x3F, 
    0x0A, 0xCE, 0x01, 0xBF, 0x40, 0x7E, 0x35, 0xBF, 
    0x7E, 0xFC, 0xFF, 0xFF, 0x10, 0x00, 0x00, 0x00, 
    0x07, 0x00, 0x00, 0x00, 0x14, 0x00, 0x00, 0x00, 
    0x30, 0x00, 0x00, 0x00, 0x02, 0x00, 0x00, 0x00, 
    0x01, 0x00, 0x00, 0x00, 0x09, 0x00, 0x00, 0x00, 
    0x1B, 0x00, 0x00, 0x00, 0x73, 0x65, 0x71, 0x75, 
    0x65, 0x6E, 0x74, 0x69, 0x61, 0x6C, 0x5F, 0x31, 
    0x2F, 0x64, 0x65, 0x6E, 0x73, 0x65, 0x5F, 0x34, 
    0x2F, 0x4D, 0x61, 0x74, 0x4D, 0x75, 0x6C, 0x00, 
    0xF8, 0xFB, 0xFF, 0xFF, 0xFA, 0xFC, 0xFF, 0xFF, 
    0x04, 0x00, 0x00, 0x00, 0x44, 0x01, 0x00, 0x00, 
    0x68, 0x4D, 0xB7, 0x3E, 0x1F, 0x57, 0x3F, 0xBE, 
    0xA0, 0x7A, 0x2F, 0xBD, 0x0C, 0x59, 0x00, 0x3F, 
    0xF0, 0xC9, 0x7E, 0xBF, 0xAE, 0x49, 0xC2, 0x3E, 
    0x3A, 0x47, 0x16, 0xBE, 0xBA, 0x67, 0xCE, 0x3E, 
    0x48, 0x9C, 0x80, 0xBE, 0x09, 0xCA, 0x4D, 0xBE, 
    0x63, 0xF3, 0x0B, 0x3F, 0xD4, 0x3E, 0xE6, 0x3E, 
    0x60, 0x00, 0x0D, 0x3D, 0xBB, 0x06, 0x6B, 0x3F, 
    0xD8, 0x1A, 0xDF, 0x3E, 0x34, 0x28, 0x37, 0xBE, 
    0x10, 0x06, 0x09, 0x3F, 0x68, 0x05, 0x25, 0x3E, 
    0xA4, 0x4D, 0x12, 0x3D, 0xCB, 0x52, 0x85, 0xBE, 
    0x40, 0xF4, 0x53, 0x3E, 0xC0, 0xE4, 0x09, 0x3F, 
    0x9B, 0x2A, 0xA1, 0x3D, 0x70, 0x41, 0x17, 0x3D, 
    0xC8, 0x55, 0x5A, 0xBE, 0xDA, 0xD3, 0x9A, 0xBE, 
    0x14, 0x5D, 0xE1, 0xBE, 0xCB, 0xCE, 0xBD, 0xBD, 
    0x1D, 0xFC, 0xCB, 0x3E, 0xCF, 0xF1, 0xED, 0xBE, 
    0xA8, 0xF8, 0xE2, 0x3E, 0x5A, 0x59, 0xEE, 0xBE, 
    0x42, 0x2D, 0x09, 0xBF, 0xA1, 0xE7, 0x83, 0xBE, 
    0xAA, 0x10, 0xD8, 0xBE, 0x30, 0xC1, 0x69, 0xBD, 
    0x54, 0xEE, 0x74, 0xBE, 0x2C, 0xF6, 0xEA, 0xBE, 
    0x20, 0x0B, 0x0F, 0xBF, 0xDD, 0x0F, 0xE9, 0xBE, 
    0xF0, 0x8A, 0x5F, 0xBD, 0x56, 0x04, 0x08, 0xBF, 
    0x64, 0xDC, 0x0B, 0x3F, 0xDC, 0x77, 0x68, 0x3E, 
    0x16, 0x44, 0x14, 0xBE, 0xE4, 0xFB, 0xAE, 0xBD, 
    0x60, 0x44, 0xA1, 0x3D, 0x00, 0x8D, 0x6A, 0xBC, 
    0x90, 0x7E, 0x83, 0xBD, 0xBE, 0x52, 0x96, 0xBE, 
    0x1E, 0x30, 0xC5, 0x3E, 0x58, 0x99, 0x06, 0xBE, 
    0xA0, 0x88, 0x95, 0xBD, 0xFE, 0x06, 0xAB, 0x3E, 
    0xAA, 0x80, 0x12, 0x3F, 0x4A, 0x8F, 0xA1, 0xBF, 
    0x80, 0xFB, 0xC4, 0x3D, 0x62, 0x95, 0xA8, 0x3E, 
    0x01, 0x72, 0x0E, 0xBF, 0xE6, 0x06, 0xA1, 0x3E, 
    0x88, 0x8E, 0x48, 0x3E, 0x98, 0x47, 0x20, 0xBE, 
    0x00, 0x9C, 0x8B, 0xBC, 0xDB, 0x99, 0xD2, 0x3E, 
    0x0A, 0x1B, 0xAB, 0x3E, 0xA4, 0xCE, 0xCF, 0xBD, 
    0x60, 0x53, 0xFC, 0xBC, 0x13, 0x96, 0x4C, 0xBD, 
    0xC0, 0x78, 0xBD, 0x3E, 0x8C, 0x8D, 0xE1, 0x3E, 
    0xE4, 0xC8, 0x37, 0x3E, 0xB0, 0x00, 0x0D, 0x3F, 
    0x89, 0x18, 0x63, 0xBE, 0x0F, 0x9C, 0xF2, 0xBC, 
    0x90, 0x1A, 0x89, 0x3E, 0x8C, 0xDA, 0xEB, 0x3E, 
    0xCE, 0xF8, 0xBD, 0x3E, 0xC8, 0xE9, 0x23, 0xBE, 
    0x04, 0x29, 0xEA, 0xBE, 0x80, 0x16, 0x4B, 0x3E, 
    0x68, 0x9B, 0x0C, 0x3F, 0x12, 0xFE, 0xFF, 0xFF, 
    0x10, 0x00, 0x00, 0x00, 0x06, 0x00, 0x00, 0x00, 
    0x14, 0x00, 0x00, 0x00, 0x30, 0x00, 0x00, 0x00, 
    0x02, 0x00, 0x00, 0x00, 0x09, 0x00, 0x00, 0x00, 
    0x09, 0x00, 0x00, 0x00, 0x1B, 0x00, 0x00, 0x00, 
    0x73, 0x65, 0x71, 0x75, 0x65, 0x6E, 0x74, 0x69, 
    0x61, 0x6C, 0x5F, 0x31, 0x2F, 0x64, 0x65, 0x6E, 
    0x73, 0x65, 0x5F, 0x33, 0x2F, 0x4D, 0x61, 0x74, 
    0x4D, 0x75, 0x6C, 0x00, 0x8C, 0xFD, 0xFF, 0xFF, 
    0x8E, 0xFE, 0xFF, 0xFF, 0x04, 0x00, 0x00, 0x00, 
    0x24, 0x00, 0x00, 0x00, 0xC5, 0xCF, 0x1D, 0x3F, 
    0xA3, 0x08, 0xE1, 0x3E, 0xF1, 0x66, 0x3F, 0xBF, 
    0xB4, 0xD4, 0x78, 0xBE, 0xC3, 0xF3, 0x9D, 0x3E, 
    0x80, 0xED, 0x41, 0xBE, 0x81, 0x42, 0x29, 0xBF, 
    0x4A, 0xD2, 0x3D, 0xBF, 0xF1, 0xCE, 0xA8, 0xBE, 
    0x86, 0xFE, 0xFF, 0xFF, 0x10, 0x00, 0x00, 0x00, 
    0x05, 0x00, 0x00, 0x00, 0x14, 0x00, 0x00, 0x00, 
    0x30, 0x00, 0x00, 0x00, 0x02, 0x00, 0x00, 0x00, 
    0x09, 0x00, 0x00, 0x00, 0x01, 0x00, 0x00, 0x00, 
    0x1B, 0x00, 0x00, 0x00, 0x73, 0x65, 0x71, 0x75, 
    0x65, 0x6E, 0x74, 0x69, 0x61, 0x6C, 0x5F, 0x31, 
    0x2F, 0x64, 0x65, 0x6E, 0x73, 0x65, 0x5F, 0x32, 
    0x2F, 0x4D, 0x61, 0x74, 0x4D, 0x75, 0x6C, 0x00, 
    0x00, 0xFE, 0xFF, 0xFF, 0x02, 0xFF, 0xFF, 0xFF, 
    0x04, 0x00, 0x00, 0x00, 0x04, 0x00, 0x00, 0x00, 
    0x7A, 0x9E, 0xE3, 0xBE, 0xDA, 0xFE, 0xFF, 0xFF, 
    0x10, 0x00, 0x00, 0x00, 0x04, 0x00, 0x00, 0x00, 
    0x10, 0x00, 0x00, 0x00, 0x48, 0x00, 0x00, 0x00, 
    0x01, 0x00, 0x00, 0x00, 0x01, 0x00, 0x00, 0x00, 
    0x34, 0x00, 0x00, 0x00, 0x73, 0x65, 0x71, 0x75, 
    0x65, 0x6E, 0x74, 0x69, 0x61, 0x6C, 0x5F, 0x31, 
    0x2F, 0x64, 0x65, 0x6E, 0x73, 0x65, 0x5F, 0x34, 
    0x2F, 0x42, 0x69, 0x61, 0x73, 0x41, 0x64, 0x64, 
    0x2F, 0x52, 0x65, 0x61, 0x64, 0x56, 0x61, 0x72, 
    0x69, 0x61, 0x62, 0x6C, 0x65, 0x4F, 0x70, 0x2F, 
    0x72, 0x65, 0x73, 0x6F, 0x75, 0x72, 0x63, 0x65, 
    0x00, 0x00, 0x00, 0x00, 0x6C, 0xFE, 0xFF, 0xFF, 
    0x6E, 0xFF, 0xFF, 0xFF, 0x04, 0x00, 0x00, 0x00, 
    0x24, 0x00, 0x00, 0x00, 0x67, 0xB9, 0x6C, 0x3D, 
    0x26, 0x8C, 0x6C, 0xBF, 0x94, 0x3F, 0x31, 0xBD, 
    0x15, 0xFA, 0xEA, 0xBC, 0x00, 0x00, 0x00, 0x00, 
    0x00, 0x00, 0x00, 0x00, 0xE4, 0x33, 0x7D, 0x3E, 
    0x96, 0xFD, 0x54, 0xBE, 0xFE, 0x25, 0xBB, 0xBA, 
    0x66, 0xFF, 0xFF, 0xFF, 0x10, 0x00, 0x00, 0x00, 
    0x03, 0x00, 0x00, 0x00, 0x10, 0x00, 0x00, 0x00, 
    0x4C, 0x00, 0x00, 0x00, 0x01, 0x00, 0x00, 0x00, 
    0x09, 0x00, 0x00, 0x00, 0x34, 0x00, 0x00, 0x00, 
    0x73, 0x65, 0x71, 0x75, 0x65, 0x6E, 0x74, 0x69, 
    0x61, 0x6C, 0x5F, 0x31, 0x2F, 0x64, 0x65, 0x6E, 
    0x73, 0x65, 0x5F, 0x33, 0x2F, 0x42, 0x69, 0x61, 
    0x73, 0x41, 0x64, 0x64, 0x2F, 0x52, 0x65, 0x61, 
    0x64, 0x56, 0x61, 0x72, 0x69, 0x61, 0x62, 0x6C, 
    0x65, 0x4F, 0x70, 0x2F, 0x72, 0x65, 0x73, 0x6F, 
    0x75, 0x72, 0x63, 0x65, 0x00, 0x00, 0x00, 0x00, 
    0x04, 0x00, 0x06, 0x00, 0x04, 0x00, 0x00, 0x00, 
    0x00, 0x00, 0x06, 0x00, 0x08, 0x00, 0x04, 0x00, 
    0x06, 0x00, 0x00, 0x00, 0x04, 0x00, 0x00, 0x00, 
    0x24, 0x00, 0x00, 0x00, 0x83, 0x5E, 0xCC, 0x3D, 
    0x80, 0x25, 0x21, 0xBF, 0x00, 0x00, 0x00, 0x00, 
    0x00, 0x00, 0x00, 0x00, 0x8D, 0xF7, 0x39, 0xBF, 
    0x00, 0x00, 0x00, 0x00, 0x00, 0x00, 0x00, 0x00, 
    0x00, 0x00, 0x00, 0x00, 0x00, 0x00, 0x00, 0x00, 
    0x00, 0x00, 0x0E, 0x00, 0x14, 0x00, 0x04, 0x00, 
    0x00, 0x00, 0x08, 0x00, 0x0C, 0x00, 0x10, 0x00, 
    0x0E, 0x00, 0x00, 0x00, 0x10, 0x00, 0x00, 0x00, 
    0x02, 0x00, 0x00, 0x00, 0x10, 0x00, 0x00, 0x00, 
    0x48, 0x00, 0x00, 0x00, 0x01, 0x00, 0x00, 0x00, 
    0x09, 0x00, 0x00, 0x00, 0x34, 0x00, 0x00, 0x00, 
    0x73, 0x65, 0x71, 0x75, 0x65, 0x6E, 0x74, 0x69, 
    0x61, 0x6C, 0x5F, 0x31, 0x2F, 0x64, 0x65, 0x6E, 
    0x73, 0x65, 0x5F, 0x32, 0x2F, 0x42, 0x69, 0x61, 
    0x73, 0x41, 0x64, 0x64, 0x2F, 0x52, 0x65, 0x61, 
    0x64, 0x56, 0x61, 0x72, 0x69, 0x61, 0x62, 0x6C, 
    0x65, 0x4F, 0x70, 0x2F, 0x72, 0x65, 0x73, 0x6F, 
    0x75, 0x72, 0x63, 0x65, 0x00, 0x00, 0x00, 0x00, 
    0xA0, 0xFF, 0xFF, 0xFF, 0x14, 0x00, 0x18, 0x00, 
    0x04, 0x00, 0x00, 0x00, 0x08, 0x00, 0x0C, 0x00, 
    0x10, 0x00, 0x00, 0x00, 0x00, 0x00, 0x14, 0x00, 
    0x14, 0x00, 0x00, 0x00, 0x14, 0x00, 0x00, 0x00, 
    0x01, 0x00, 0x00, 0x00, 0x24, 0x00, 0x00, 0x00, 
    0x34, 0x00, 0x00, 0x00, 0x10, 0x00, 0x00, 0x00, 
    0x02, 0x00, 0x00, 0x00, 0x01, 0x00, 0x00, 0x00, 
    0x01, 0x00, 0x00, 0x00, 0x02, 0x00, 0x00, 0x00, 
    0xFF, 0xFF, 0xFF, 0xFF, 0x01, 0x00, 0x00, 0x00, 
    0x0D, 0x00, 0x00, 0x00, 0x64, 0x65, 0x6E, 0x73, 
    0x65, 0x5F, 0x32, 0x5F, 0x69, 0x6E, 0x70, 0x75, 
    0x74, 0x00, 0x00, 0x00, 0xFC, 0xFF, 0xFF, 0xFF, 
    0x04, 0x00, 0x04, 0x00, 0x04, 0x00, 0x00, 0x00
};

unsigned int model_len = 2080;