// model.h - TensorFlow lite model - 2021-08-17 22:21:10.153906

#define MODEL_ALIGN __attribute__((aligned(4)))

const unsigned char model_data[] MODEL_ALIGN = {
    0x20, 0x00, 0x00, 0x00, 0x54, 0x46, 0x4C, 0x33, 
    0x00, 0x00, 0x00, 0x00, 0x00, 0x00, 0x12, 0x00, 
    0x1C, 0x00, 0x04, 0x00, 0x08, 0x00, 0x0C, 0x00, 
    0x10, 0x00, 0x14, 0x00, 0x00, 0x00, 0x18, 0x00, 
    0x12, 0x00, 0x00, 0x00, 0x03, 0x00, 0x00, 0x00, 
    0x84, 0x2C, 0x00, 0x00, 0xA4, 0x24, 0x00, 0x00, 
    0x8C, 0x24, 0x00, 0x00, 0x3C, 0x00, 0x00, 0x00, 
    0x04, 0x00, 0x00, 0x00, 0x01, 0x00, 0x00, 0x00, 
    0x0C, 0x00, 0x00, 0x00, 0x08, 0x00, 0x0C, 0x00, 
    0x04, 0x00, 0x08, 0x00, 0x08, 0x00, 0x00, 0x00, 
    0x08, 0x00, 0x00, 0x00, 0x0F, 0x00, 0x00, 0x00, 
    0x13, 0x00, 0x00, 0x00, 0x6D, 0x69, 0x6E, 0x5F, 
    0x72, 0x75, 0x6E, 0x74, 0x69, 0x6D, 0x65, 0x5F, 
    0x76, 0x65, 0x72, 0x73, 0x69, 0x6F, 0x6E, 0x00, 
    0x10, 0x00, 0x00, 0x00, 0x38, 0x24, 0x00, 0x00, 
    0x24, 0x24, 0x00, 0x00, 0x08, 0x24, 0x00, 0x00, 
    0xE4, 0x23, 0x00, 0x00, 0xC0, 0x23, 0x00, 0x00, 
    0x8C, 0x23, 0x00, 0x00, 0xF8, 0x01, 0x00, 0x00, 
    0x94, 0x01, 0x00, 0x00, 0xA0, 0x00, 0x00, 0x00, 
    0x94, 0x00, 0x00, 0x00, 0x80, 0x00, 0x00, 0x00, 
    0x6C, 0x00, 0x00, 0x00, 0x58, 0x00, 0x00, 0x00, 
    0x44, 0x00, 0x00, 0x00, 0x30, 0x00, 0x00, 0x00, 
    0x04, 0x00, 0x00, 0x00, 0x72, 0xDB, 0xFF, 0xFF, 
    0x04, 0x00, 0x00, 0x00, 0x10, 0x00, 0x00, 0x00, 
    0x31, 0x2E, 0x35, 0x2E, 0x30, 0x00, 0x00, 0x00, 
    0x00, 0x00, 0x00, 0x00, 0x00, 0x00, 0x00, 0x00, 
    0x00, 0x00, 0x00, 0x00, 0x00, 0x00, 0x00, 0x00, 
    0x00, 0x00, 0x00, 0x00, 0x60, 0xD4, 0xFF, 0xFF, 
    0x00, 0x00, 0x00, 0x00, 0x00, 0x00, 0x00, 0x00, 
    0x00, 0x00, 0x00, 0x00, 0x70, 0xD4, 0xFF, 0xFF, 
    0x00, 0x00, 0x00, 0x00, 0x00, 0x00, 0x00, 0x00, 
    0x00, 0x00, 0x00, 0x00, 0x80, 0xD4, 0xFF, 0xFF, 
    0x00, 0x00, 0x00, 0x00, 0x00, 0x00, 0x00, 0x00, 
    0x00, 0x00, 0x00, 0x00, 0x90, 0xD4, 0xFF, 0xFF, 
    0x00, 0x00, 0x00, 0x00, 0x00, 0x00, 0x00, 0x00, 
    0x00, 0x00, 0x00, 0x00, 0xA0, 0xD4, 0xFF, 0xFF, 
    0x00, 0x00, 0x00, 0x00, 0x00, 0x00, 0x00, 0x00, 
    0x00, 0x00, 0x00, 0x00, 0xB0, 0xD4, 0xFF, 0xFF, 
    0x00, 0x00, 0x00, 0x00, 0xF2, 0xDB, 0xFF, 0xFF, 
    0x04, 0x00, 0x00, 0x00, 0xD8, 0x00, 0x00, 0x00, 
    0x6C, 0x5D, 0x2D, 0x3E, 0x0A, 0x73, 0x5E, 0x3E, 
    0xA3, 0xEB, 0x1D, 0xBE, 0x68, 0x3D, 0x34, 0x3E, 
    0x21, 0xD5, 0x3E, 0x3E, 0xFA, 0x8D, 0xB8, 0x3E, 
    0x0A, 0x59, 0xA4, 0x3E, 0x25, 0x33, 0xC6, 0x3E, 
    0xD5, 0xCC, 0x7A, 0x3E, 0xB6, 0x03, 0x03, 0xBE, 
    0xFB, 0xE3, 0x1E, 0x3E, 0xD3, 0xAE, 0x46, 0xBD, 
    0x13, 0x7E, 0xD1, 0xBE, 0x9D, 0x04, 0xA9, 0xBE, 
    0x5A, 0x1E, 0xD1, 0xBE, 0xA1, 0x1B, 0x88, 0x3D, 
    0x00, 0x34, 0xED, 0xBE, 0x44, 0xB0, 0xBE, 0xBE, 
    0x3A, 0xAB, 0x49, 0xBD, 0x4B, 0xA3, 0x0C, 0xBE, 
    0x1F, 0xDF, 0x86, 0x3D, 0x59, 0xE3, 0x86, 0x3E, 
    0x1D, 0xEC, 0x49, 0x3E, 0x9A, 0xD5, 0xA6, 0x3E, 
    0xC7, 0xE8, 0x24, 0x3D, 0x76, 0x99, 0xA6, 0x3E, 
    0x62, 0x32, 0x49, 0x3E, 0x70, 0x0C, 0xD6, 0xBD, 
    0x8B, 0x6B, 0x79, 0xBE, 0x6B, 0xE8, 0x4A, 0x3E, 
    0xA6, 0xF0, 0x2F, 0xBD, 0x7A, 0x00, 0x8D, 0xBE, 
    0x60, 0xD8, 0xA3, 0xBD, 0x0C, 0x64, 0x32, 0x3E, 
    0x3E, 0xCF, 0x00, 0x3E, 0x79, 0x12, 0x42, 0xBD, 
    0x02, 0x0D, 0x0A, 0xBF, 0xC7, 0x99, 0xBC, 0xBE, 
    0x7D, 0x97, 0x0A, 0xBF, 0x60, 0x8B, 0xE9, 0xBE, 
    0xB3, 0xF1, 0xF6, 0xBB, 0xDE, 0x0F, 0x5F, 0xBE, 
    0x52, 0x90, 0x92, 0xBE, 0xE4, 0x3B, 0x4D, 0xBD, 
    0x6F, 0xBF, 0x60, 0x3E, 0x68, 0x10, 0x55, 0x3E, 
    0xCC, 0xCF, 0x64, 0x3E, 0x76, 0xB3, 0xB3, 0x3D, 
    0xFE, 0x29, 0x49, 0x3E, 0xA4, 0xC5, 0x54, 0x3D, 
    0x61, 0x26, 0xC3, 0xBD, 0xED, 0x39, 0x85, 0x3E, 
    0x03, 0x67, 0xED, 0xBD, 0xF4, 0x9B, 0x69, 0x3E, 
    0x00, 0x00, 0x00, 0x00, 0x00, 0x00, 0x00, 0x00, 
    0x00, 0x00, 0x00, 0x00, 0xE2, 0xDC, 0xFF, 0xFF, 
    0x04, 0x00, 0x00, 0x00, 0x50, 0x00, 0x00, 0x00, 
    0x6A, 0xBB, 0xC6, 0x3E, 0xEE, 0x48, 0xEB, 0x3D, 
    0x96, 0xA7, 0x32, 0xBF, 0xF9, 0xC6, 0xCD, 0x3E, 
    0x7C, 0x54, 0x12, 0x3E, 0x28, 0xCE, 0x50, 0x3E, 
    0x46, 0xD0, 0x73, 0xBE, 0x5E, 0xE8, 0x59, 0x3D, 
    0xEE, 0x79, 0x4D, 0xBF, 0xD5, 0x3F, 0x25, 0x3F, 
    0xDC, 0x4A, 0x4B, 0xBF, 0x74, 0x67, 0x3A, 0xBF, 
    0x33, 0x0E, 0xF1, 0x3E, 0x4D, 0x84, 0x09, 0x3F, 
    0xB6, 0x93, 0x0C, 0xBF, 0x2C, 0x12, 0x80, 0xBE, 
    0xFF, 0x0A, 0x60, 0xBF, 0x54, 0xE3, 0x3E, 0xBF, 
    0xD2, 0x0B, 0x64, 0x3E, 0xE8, 0x3F, 0x3C, 0x3F, 
    0x00, 0x00, 0x00, 0x00, 0x42, 0xDD, 0xFF, 0xFF, 
    0x04, 0x00, 0x00, 0x00, 0x84, 0x21, 0x00, 0x00, 
    0x08, 0x17, 0xEF, 0x13, 0xE7, 0x03, 0xE0, 0x18, 
    0xF7, 0xE3, 0xEE, 0x10, 0xE2, 0x1C, 0xE9, 0xFE, 
    0xEB, 0x09, 0xF9, 0x05, 0xFA, 0x00, 0xEA, 0x0F, 
    0xED, 0x01, 0x16, 0x02, 0xF7, 0xEB, 0xF6, 0x02, 
    0xFB, 0xFD, 0xF5, 0xEF, 0x0A, 0x02, 0xE6, 0x05, 
    0x12, 0x02, 0xEB, 0x00, 0xFA, 0x18, 0x13, 0x09, 
    0xE0, 0x15, 0xF8, 0xEA, 0xE3, 0xFD, 0xF2, 0xFA, 
    0x13, 0xF6, 0xF5, 0xE8, 0xEF, 0xF7, 0xF7, 0x04, 
    0x1C, 0xF5, 0x1A, 0xF6, 0xF3, 0xE8, 0xE3, 0xF3, 
    0x0B, 0x0F, 0x18, 0x12, 0x08, 0x0B, 0xFB, 0xE9, 
    0x12, 0xFC, 0x1C, 0x0B, 0x04, 0xF0, 0xF1, 0xE7, 
    0xE3, 0x17, 0x0D, 0xF2, 0x0F, 0xE7, 0x0A, 0x0B, 
    0x00, 0xF0, 0x03, 0x06, 0x16, 0x17, 0x05, 0xFB, 
    0xE3, 0x08, 0xF8, 0x08, 0x10, 0x13, 0x05, 0xFA, 
    0x0E, 0xE2, 0xFB, 0x0E, 0x03, 0xE4, 0xE8, 0xE5, 
    0xE0, 0xE7, 0xE6, 0xE1, 0xFA, 0x0C, 0xFD, 0x02, 
    0xFE, 0xE2, 0x1A, 0xF2, 0xF8, 0x1E, 0xEE, 0xF1, 
    0x17, 0x12, 0x19, 0x03, 0xFC, 0xE5, 0x18, 0x1A, 
    0xF6, 0xF6, 0xE5, 0x09, 0xFE, 0x06, 0xE4, 0xFA, 
    0xE3, 0xF1, 0xED, 0x07, 0x0C, 0xFF, 0xE4, 0x0F, 
    0xF5, 0x14, 0xFC, 0xE7, 0xFE, 0x05, 0x1E, 0xED, 
    0xE6, 0xE8, 0xED, 0x0B, 0x0B, 0xE3, 0x0B, 0xF0, 
    0xF9, 0xFB, 0x07, 0x1A, 0x14, 0x0D, 0x09, 0x0D, 
    0xE4, 0x09, 0xE2, 0xFA, 0xFE, 0x14, 0x0A, 0xE4, 
    0x03, 0x1A, 0xF6, 0x12, 0x1D, 0xF7, 0x0F, 0x00, 
    0xF2, 0x06, 0x17, 0xE4, 0x00, 0xED, 0x12, 0xE4, 
    0xF7, 0x0B, 0x10, 0xF7, 0xE3, 0xF5, 0xFF, 0xF4, 
    0xEE, 0x1A, 0xFC, 0x17, 0x0D, 0x10, 0x01, 0xF7, 
    0x03, 0xF5, 0x09, 0x11, 0x04, 0xED, 0xEC, 0x06, 
    0xED, 0xFF, 0x01, 0x1D, 0xE4, 0xE0, 0x1B, 0x08, 
    0xF5, 0x00, 0xF3, 0xE2, 0xFE, 0xE2, 0xF2, 0xFD, 
    0xEF, 0x05, 0x0E, 0x15, 0xEA, 0xF3, 0xF1, 0xE9, 
    0x0E, 0xE5, 0xE5, 0x11, 0xF0, 0xE7, 0x10, 0xE0, 
    0x0D, 0xFD, 0x00, 0x11, 0xF3, 0xF3, 0x09, 0xE4, 
    0x16, 0x13, 0x1C, 0x14, 0xF7, 0xE6, 0x08, 0x18, 
    0xF1, 0xFA, 0x17, 0xE3, 0x00, 0x0D, 0xE8, 0xFD, 
    0x04, 0x13, 0x04, 0x1B, 0xF3, 0xF3, 0xF5, 0x05, 
    0x16, 0xF3, 0xF0, 0xE5, 0xEC, 0x0F, 0x09, 0x19, 
    0xF7, 0x07, 0xF5, 0x08, 0x06, 0x01, 0xE5, 0xFA, 
    0x00, 0x01, 0xE8, 0x09, 0x18, 0xE2, 0x19, 0x0C, 
    0x12, 0xDF, 0x1A, 0xF1, 0xEF, 0x07, 0x0D, 0xE0, 
    0x13, 0xE0, 0x04, 0x1D, 0x18, 0x06, 0xF9, 0xEC, 
    0xE1, 0x18, 0xF9, 0xE0, 0xF6, 0xF3, 0x08, 0xF8, 
    0xF6, 0x0B, 0xE4, 0xFF, 0xE5, 0xF8, 0x19, 0x16, 
    0x02, 0xF3, 0x1A, 0xFE, 0x0C, 0x08, 0xE9, 0xED, 
    0x09, 0xF0, 0xF5, 0xFF, 0xEF, 0xE3, 0x06, 0xE9, 
    0x05, 0x10, 0xF9, 0xE5, 0xE8, 0x16, 0xEA, 0x10, 
    0xE6, 0x0D, 0x07, 0x13, 0x19, 0xFD, 0xEC, 0xF4, 
    0x12, 0x02, 0x06, 0xFD, 0xEC, 0x0F, 0xF5, 0xE8, 
    0x0B, 0xF5, 0xE2, 0x0F, 0x11, 0x08, 0x03, 0xE7, 
    0x1D, 0xFD, 0x10, 0xED, 0xF4, 0xE7, 0xE4, 0xF3, 
    0x1A, 0x13, 0xE2, 0x07, 0x1A, 0xE9, 0xE9, 0x19, 
    0xE8, 0xFB, 0x07, 0xEC, 0xE6, 0x19, 0xE8, 0xF9, 
    0x0D, 0xFA, 0xF5, 0xE8, 0x1D, 0x00, 0xEB, 0x11, 
    0xEF, 0xF0, 0xFD, 0x16, 0x1A, 0x06, 0xE7, 0x16, 
    0x01, 0xE2, 0x05, 0xF2, 0x1C, 0x03, 0xE9, 0xE7, 
    0xF0, 0x01, 0x0B, 0xF4, 0xF0, 0xE8, 0x12, 0xEC, 
    0xE2, 0x0A, 0x01, 0x0C, 0x0D, 0xE0, 0xF4, 0x18, 
    0xE9, 0xFF, 0x05, 0xE8, 0x19, 0xE1, 0xF8, 0xE0, 
    0xED, 0xED, 0x19, 0xE0, 0xE5, 0x14, 0xE5, 0x01, 
    0xF1, 0x05, 0xEE, 0xFB, 0x0E, 0xE5, 0x09, 0xE2, 
    0x1A, 0xE0, 0x14, 0xE0, 0x0E, 0x07, 0x16, 0xE2, 
    0x09, 0xF8, 0xF2, 0x18, 0xEF, 0x19, 0xFF, 0x0F, 
    0xFE, 0x1B, 0xF0, 0xF9, 0xF8, 0x04, 0x0D, 0xFE, 
    0xF0, 0xFD, 0xF3, 0xEE, 0xF9, 0x0D, 0x1A, 0xE2, 
    0x01, 0xFB, 0x11, 0x01, 0x02, 0xF9, 0xFE, 0x14, 
    0xEE, 0xF0, 0x06, 0xF5, 0x07, 0xEB, 0xFC, 0xFB, 
    0x00, 0x07, 0x0F, 0xF9, 0xED, 0xE6, 0x0C, 0xEC, 
    0xF0, 0x19, 0x06, 0x1B, 0x01, 0xF2, 0xF8, 0x07, 
    0xE2, 0x0F, 0xFE, 0xEC, 0x19, 0xE9, 0xE9, 0xEF, 
    0x18, 0xEB, 0xF0, 0x07, 0x0A, 0xE3, 0xE5, 0x15, 
    0xF6, 0xF9, 0x16, 0x13, 0x16, 0x1A, 0x1A, 0xF7, 
    0x0E, 0xE7, 0x1C, 0xE2, 0xF3, 0x1C, 0xED, 0x18, 
    0xE9, 0xFE, 0xFF, 0x05, 0xEF, 0xF5, 0xF7, 0x18, 
    0x18, 0xE2, 0xE5, 0xF2, 0xE2, 0x16, 0xEE, 0x12, 
    0xEC, 0xEC, 0x03, 0x0A, 0xFD, 0xF6, 0xFF, 0x10, 
    0xFE, 0xF0, 0xE1, 0xFE, 0x19, 0x19, 0x00, 0xE8, 
    0x0C, 0x15, 0xF6, 0xEC, 0xF7, 0xE3, 0x04, 0xF3, 
    0xF6, 0xE8, 0x09, 0xFE, 0x0C, 0xE5, 0xE2, 0xF7, 
    0x15, 0xE7, 0x09, 0x09, 0x0E, 0x01, 0xE2, 0x02, 
    0x0C, 0x0A, 0x11, 0x16, 0x04, 0xEB, 0x11, 0xFC, 
    0xEB, 0x04, 0xE2, 0x0A, 0xFF, 0xFB, 0x10, 0xDF, 
    0x04, 0xE7, 0x10, 0x15, 0xF5, 0x11, 0xFB, 0x01, 
    0xF1, 0xF7, 0xEF, 0xF7, 0x0F, 0x00, 0x19, 0xDF, 
    0x17, 0xE6, 0x03, 0xFC, 0xF1, 0xFD, 0x0B, 0x16, 
    0x18, 0xFA, 0x16, 0x01, 0xEE, 0x0F, 0xE2, 0x05, 
    0xE2, 0x09, 0xE0, 0x02, 0xF4, 0xEB, 0xFE, 0xE3, 
    0x15, 0xEF, 0x08, 0x05, 0xFA, 0x03, 0xF5, 0x17, 
    0xF6, 0x19, 0xFF, 0xF2, 0x04, 0x17, 0x14, 0xE8, 
    0xEB, 0x02, 0x01, 0xE6, 0xFE, 0xF9, 0xF6, 0x1B, 
    0xE2, 0xF7, 0x18, 0x14, 0x0F, 0x0A, 0x08, 0xE1, 
    0x01, 0x0B, 0x03, 0xE6, 0xF5, 0xF4, 0x07, 0xFB, 
    0x08, 0x0C, 0xE8, 0xFC, 0xE5, 0x09, 0xEE, 0xEF, 
    0x17, 0x0F, 0x12, 0xF2, 0xF8, 0xFA, 0xF5, 0x11, 
    0x14, 0x0E, 0x00, 0x17, 0x17, 0xF9, 0x0A, 0xF7, 
    0xF2, 0x1D, 0x0F, 0xEE, 0xFA, 0xE9, 0xF5, 0x10, 
    0xEB, 0x0B, 0x08, 0x13, 0xE3, 0x16, 0x12, 0x15, 
    0xF8, 0xE3, 0x0E, 0x16, 0x1E, 0x07, 0x17, 0xE6, 
    0xFB, 0x0E, 0xEB, 0x17, 0xE2, 0x02, 0xE1, 0xE7, 
    0xEA, 0xF5, 0xE1, 0xE1, 0xE2, 0x19, 0x05, 0xFC, 
    0xFA, 0x18, 0xFD, 0xFE, 0x06, 0x02, 0x02, 0x0E, 
    0x18, 0xEC, 0xF4, 0xFB, 0x04, 0x19, 0x12, 0xFE, 
    0xED, 0xEC, 0xFE, 0xE4, 0xF2, 0xF9, 0xF8, 0xE0, 
    0xE0, 0x10, 0xF1, 0x0E, 0x03, 0xEC, 0x00, 0xE8, 
    0xE9, 0xE1, 0xEE, 0xED, 0x1A, 0x0F, 0xF7, 0x0E, 
    0xE2, 0xFA, 0xFC, 0x02, 0xFC, 0x0E, 0xFE, 0x19, 
    0x05, 0x0D, 0x0D, 0x10, 0x15, 0x18, 0x0A, 0x07, 
    0x01, 0x06, 0x05, 0x16, 0x03, 0xFF, 0xFF, 0x14, 
    0x1C, 0x18, 0x0D, 0xE6, 0xE7, 0xF5, 0xEE, 0xF7, 
    0x03, 0x08, 0xE4, 0xEB, 0x1A, 0xF2, 0xE8, 0x02, 
    0xEB, 0xF3, 0x09, 0xE8, 0xFB, 0x0E, 0x02, 0x12, 
    0xF0, 0xE0, 0x0C, 0x16, 0x0B, 0xED, 0xE9, 0x0F, 
    0xFE, 0xF7, 0x10, 0x0E, 0xF3, 0xE1, 0x1E, 0x10, 
    0xE1, 0xEC, 0xFA, 0x18, 0xF8, 0x1E, 0x0B, 0xEA, 
    0xF7, 0xED, 0x03, 0xF7, 0x13, 0x03, 0x02, 0xE3, 
    0xE6, 0xE7, 0x16, 0xFB, 0xF2, 0x07, 0x0F, 0x0A, 
    0x16, 0x19, 0x01, 0xF8, 0x01, 0xE9, 0xEE, 0x19, 
    0xE9, 0x0F, 0x15, 0xF2, 0x16, 0x1A, 0xF1, 0xE6, 
    0x0A, 0xFD, 0xFA, 0xFE, 0x07, 0x15, 0x18, 0xF5, 
    0x01, 0x18, 0xEF, 0xF8, 0xE8, 0xE6, 0x13, 0x00, 
    0x1A, 0xE6, 0xF7, 0x01, 0x02, 0xFE, 0xF1, 0xF0, 
    0xFF, 0xE3, 0x01, 0x10, 0xEE, 0xE9, 0xFF, 0xFA, 
    0x0F, 0x19, 0xFF, 0x0B, 0xE9, 0x1B, 0x0B, 0xE8, 
    0x12, 0x04, 0xFD, 0x07, 0x0A, 0xED, 0x18, 0xFF, 
    0x1D, 0x07, 0x08, 0xE7, 0x13, 0x0E, 0xFE, 0xE8, 
    0x04, 0x10, 0xF0, 0x19, 0xE1, 0xEE, 0xE5, 0xE3, 
    0x00, 0xE6, 0xF3, 0xFE, 0xF8, 0xEC, 0x15, 0xF1, 
    0x0A, 0xEE, 0xFE, 0x0B, 0x12, 0x05, 0x0F, 0x13, 
    0xF8, 0x0C, 0x1C, 0x0F, 0xEE, 0xF2, 0x09, 0x09, 
    0xE6, 0xF2, 0xED, 0x1A, 0xE7, 0x02, 0x0F, 0x0C, 
    0x0A, 0x0F, 0x01, 0xF8, 0xE9, 0xEA, 0x18, 0x08, 
    0x0D, 0x15, 0xEF, 0x12, 0xFF, 0xFC, 0x01, 0x10, 
    0xF4, 0xFF, 0xFC, 0xEA, 0x18, 0xFF, 0x0E, 0xFE, 
    0xE0, 0xF9, 0x12, 0x12, 0x0E, 0xF4, 0xE7, 0xE3, 
    0x13, 0xED, 0x0B, 0x12, 0x0F, 0x06, 0xDF, 0xF8, 
    0x14, 0x15, 0xF4, 0xFA, 0xEB, 0xF8, 0xFB, 0xE0, 
    0xEB, 0xFF, 0x00, 0x1B, 0xFE, 0xF9, 0x0E, 0x07, 
    0xE6, 0x0F, 0x05, 0xFD, 0xEA, 0xE2, 0x0D, 0x06, 
    0x09, 0x0F, 0xEA, 0x0F, 0x07, 0x08, 0x11, 0xEE, 
    0x03, 0x02, 0xE4, 0xFC, 0xFE, 0x1B, 0x0D, 0x1B, 
    0xF1, 0x0A, 0x14, 0xEF, 0x12, 0xF1, 0xF7, 0xE6, 
    0x1B, 0x18, 0x1A, 0xEE, 0xE4, 0x10, 0xFA, 0xE9, 
    0x08, 0x06, 0xF3, 0xE9, 0xE5, 0xF5, 0xF2, 0xF0, 
    0xE7, 0xE4, 0x1A, 0xEB, 0xFD, 0x08, 0x05, 0xFB, 
    0x15, 0x16, 0x04, 0x00, 0xED, 0xFA, 0x10, 0xF8, 
    0xF1, 0x15, 0xE3, 0xE9, 0x07, 0xEF, 0x06, 0xE3, 
    0x04, 0x14, 0x10, 0x15, 0x16, 0x09, 0xF5, 0x04, 
    0xF4, 0xF6, 0x16, 0x17, 0xF4, 0x1D, 0xFC, 0xF5, 
    0x07, 0x01, 0xF5, 0x1D, 0x10, 0x03, 0x10, 0x18, 
    0xF1, 0xF1, 0x11, 0xF2, 0xFB, 0xE2, 0xEB, 0xEC, 
    0x0D, 0xF5, 0xF8, 0x14, 0x15, 0x1A, 0x04, 0x0B, 
    0xF1, 0x0C, 0x0D, 0x1B, 0xFE, 0x16, 0x10, 0xFE, 
    0xEB, 0xED, 0xE9, 0xEC, 0xFB, 0x1A, 0xE4, 0xE4, 
    0xF0, 0x19, 0xE4, 0x0E, 0x11, 0x17, 0xE5, 0xF5, 
    0xFB, 0x02, 0xFC, 0xEB, 0x03, 0xFA, 0x14, 0xF2, 
    0xEE, 0x03, 0x0B, 0x0C, 0xFF, 0xE6, 0xE1, 0xE7, 
    0xE4, 0x05, 0x0C, 0xE2, 0xF9, 0x11, 0x14, 0xE4, 
    0x12, 0xEE, 0xF4, 0x14, 0xE5, 0x0E, 0x05, 0x0C, 
    0xFE, 0x18, 0x0C, 0x1A, 0x0F, 0x1A, 0x06, 0x01, 
    0xFD, 0xF0, 0x02, 0x00, 0x19, 0x11, 0xE7, 0x06, 
    0xE7, 0x16, 0x08, 0xE3, 0x1B, 0x0F, 0xEF, 0x12, 
    0xF4, 0xE5, 0x0E, 0xF0, 0x02, 0xE5, 0xFF, 0xF4, 
    0x1E, 0x10, 0xF7, 0xE6, 0x0E, 0xF7, 0xED, 0x03, 
    0xEB, 0xE7, 0xE8, 0xF5, 0x01, 0x1A, 0xED, 0x05, 
    0xEE, 0xEB, 0xF1, 0x02, 0xF4, 0xE6, 0x13, 0xF0, 
    0x08, 0xF1, 0x16, 0x0E, 0x02, 0x00, 0x16, 0x1B, 
    0x05, 0x00, 0x16, 0x09, 0xFC, 0x01, 0x01, 0x16, 
    0xF0, 0xEB, 0xEB, 0xFC, 0x0E, 0xEC, 0x04, 0xE8, 
    0x13, 0xE6, 0xFD, 0xEE, 0xE2, 0x07, 0xFC, 0xFF, 
    0xF0, 0xF0, 0x17, 0xEE, 0xF5, 0x00, 0xE6, 0x1A, 
    0x0B, 0x11, 0x17, 0xE4, 0x11, 0x06, 0xEC, 0x01, 
    0xE4, 0x16, 0x0E, 0xED, 0x13, 0xEC, 0xEB, 0x06, 
    0x05, 0xF1, 0x0F, 0xE9, 0x00, 0xEB, 0x1C, 0x10, 
    0x03, 0xFB, 0x1C, 0x06, 0xE3, 0xE7, 0xE8, 0xF3, 
    0xFE, 0xEF, 0xF9, 0x00, 0xFF, 0xE6, 0xF9, 0x09, 
    0x1D, 0xEE, 0xE0, 0x19, 0xF9, 0xE9, 0x03, 0xF4, 
    0xF6, 0xE4, 0xF4, 0xE2, 0xFF, 0xFC, 0x0A, 0xFC, 
    0xEF, 0xF5, 0x06, 0x13, 0xE8, 0xFD, 0xEA, 0xF4, 
    0xF7, 0xEB, 0x17, 0x05, 0x10, 0xFD, 0xF2, 0x04, 
    0xF6, 0xF7, 0x12, 0x00, 0x18, 0xF3, 0x00, 0xE2, 
    0xE6, 0xF9, 0xF2, 0xFE, 0xFE, 0xE3, 0x08, 0x08, 
    0xEB, 0xEF, 0x0F, 0xF8, 0x16, 0xFE, 0x14, 0xE9, 
    0xF4, 0xF4, 0x0B, 0xF4, 0xE3, 0x1C, 0xEA, 0xE9, 
    0x15, 0xF9, 0x14, 0x0C, 0xF6, 0xE5, 0x14, 0x0C, 
    0xE7, 0xFE, 0xEF, 0xE3, 0x01, 0x06, 0xF3, 0xE1, 
    0xFB, 0x11, 0xDF, 0xEC, 0xFA, 0xF5, 0x19, 0xFD, 
    0x12, 0x0B, 0xF8, 0xED, 0x14, 0xFB, 0xE4, 0x0C, 
    0x14, 0x17, 0xF0, 0xF1, 0x06, 0x19, 0x0A, 0x10, 
    0x06, 0xF1, 0x0D, 0xE9, 0x16, 0xE2, 0x02, 0x10, 
    0x12, 0x17, 0x0B, 0xED, 0x0D, 0xEC, 0x17, 0xE8, 
    0xE7, 0x16, 0xF0, 0x1B, 0xF1, 0xF3, 0x0F, 0x0A, 
    0x0F, 0x12, 0x0F, 0xE1, 0x1C, 0x07, 0xFB, 0xE8, 
    0xFC, 0xE4, 0xF9, 0x10, 0xFC, 0x0B, 0xF7, 0xF0, 
    0xFC, 0xF5, 0xFB, 0xEA, 0xE3, 0xE6, 0x0A, 0xEE, 
    0xF5, 0x1B, 0x02, 0x13, 0x07, 0xFB, 0xF0, 0xFB, 
    0xE2, 0x03, 0xE2, 0x13, 0x01, 0xF5, 0xFB, 0xF4, 
    0xF6, 0xF2, 0x18, 0xF2, 0x10, 0x10, 0xFE, 0xF8, 
    0x0C, 0xE4, 0x11, 0xFA, 0xED, 0xF2, 0xFA, 0xFE, 
    0x11, 0xEB, 0x16, 0x08, 0xFB, 0xE8, 0x0A, 0xE7, 
    0x10, 0x19, 0xE9, 0xF3, 0xFC, 0xEA, 0xEC, 0xE7, 
    0x18, 0x11, 0x14, 0xF6, 0x09, 0x08, 0xEF, 0xF2, 
    0x18, 0xE9, 0x13, 0xF5, 0xF0, 0xF4, 0xEB, 0xE8, 
    0xF2, 0x04, 0xFC, 0xF9, 0xFB, 0x06, 0x08, 0xEF, 
    0x18, 0xE8, 0xED, 0xE6, 0xEA, 0xFD, 0x03, 0x05, 
    0xF8, 0xF7, 0xED, 0x07, 0x01, 0xFC, 0x0F, 0xE7, 
    0xFB, 0xE6, 0x07, 0x01, 0xE1, 0x10, 0xF6, 0xFF, 
    0xEB, 0x08, 0x17, 0xFB, 0x04, 0x06, 0xF2, 0xF3, 
    0x13, 0xE9, 0x11, 0x09, 0x03, 0x13, 0xE7, 0x02, 
    0x1B, 0xFD, 0xF3, 0x13, 0x1D, 0x0D, 0x0C, 0xFE, 
    0xF9, 0xEF, 0x13, 0xF3, 0x02, 0x04, 0x01, 0x1B, 
    0xF8, 0xF1, 0xE5, 0xE8, 0x14, 0xF9, 0xF3, 0xF6, 
    0x13, 0xFA, 0x05, 0xE3, 0xFD, 0x15, 0x14, 0x04, 
    0x02, 0x1D, 0xFD, 0x0E, 0x06, 0xFE, 0x0A, 0x19, 
    0x04, 0x0A, 0xFD, 0xE3, 0xE5, 0xF8, 0x0D, 0x07, 
    0xF1, 0x0A, 0x02, 0xF1, 0xFA, 0x4A, 0x0B, 0xFB, 
    0x06, 0x03, 0xFD, 0x26, 0x09, 0x03, 0x04, 0x08, 
    0x10, 0x44, 0xE8, 0x15, 0x33, 0x01, 0xF2, 0x16, 
    0xF6, 0x17, 0x21, 0xE5, 0x0E, 0x18, 0x10, 0x1B, 
    0xF7, 0xF1, 0xF9, 0xF1, 0xF8, 0x03, 0x05, 0xEF, 
    0x08, 0xFD, 0xFC, 0xEA, 0x1A, 0x14, 0x11, 0xFD, 
    0x1E, 0xF9, 0xFD, 0xF1, 0xFD, 0xDB, 0x13, 0xF8, 
    0x09, 0x03, 0xF8, 0x0F, 0x18, 0x0D, 0xE8, 0xF7, 
    0xEB, 0xF4, 0x15, 0xFF, 0x20, 0xEF, 0xE9, 0x39, 
    0x08, 0x0B, 0x1E, 0x07, 0x19, 0xEE, 0x0B, 0x07, 
    0x16, 0xFA, 0x1E, 0xF4, 0x07, 0x12, 0xEE, 0x12, 
    0xE3, 0x1E, 0xFE, 0xF7, 0x4B, 0x11, 0xF0, 0x0C, 
    0xF4, 0x03, 0x19, 0xEE, 0xF5, 0x38, 0x00, 0x03, 
    0x04, 0xF1, 0xF0, 0x0B, 0x10, 0xE9, 0x3D, 0xE3, 
    0x15, 0x2F, 0x01, 0xE4, 0x35, 0xF1, 0xEE, 0x44, 
    0xE4, 0xE8, 0x30, 0x14, 0xF2, 0x2B, 0xFF, 0x10, 
    0x34, 0xED, 0xFE, 0x18, 0xFE, 0xFE, 0x40, 0x14, 
    0xFE, 0x30, 0x06, 0xEF, 0x3E, 0x10, 0xF7, 0x3F, 
    0x0C, 0xE6, 0x18, 0x05, 0x18, 0x51, 0x05, 0x08, 
    0x06, 0xF7, 0x16, 0x19, 0xEB, 0x11, 0x14, 0x05, 
    0xFB, 0x17, 0x1E, 0xF0, 0xE9, 0xF8, 0xF6, 0x17, 
    0xE6, 0xFB, 0xFE, 0xF8, 0x0B, 0x19, 0x0D, 0xEE, 
    0xF0, 0x0A, 0x0D, 0x0D, 0xF1, 0x0C, 0x11, 0x13, 
    0xEE, 0xD9, 0xF0, 0x02, 0xD9, 0x16, 0x0A, 0xF8, 
    0x00, 0x06, 0xF0, 0xFF, 0xED, 0xE4, 0x1C, 0x10, 
    0xEB, 0x0E, 0xFD, 0xE4, 0xF0, 0xE4, 0xE0, 0xEB, 
    0x16, 0xFD, 0x10, 0xE1, 0x06, 0x14, 0x0C, 0xEF, 
    0xF2, 0xF2, 0xE6, 0x21, 0x04, 0xF4, 0x1C, 0x14, 
    0x08, 0x15, 0x19, 0x30, 0xFE, 0xF7, 0x4C, 0xF7, 
    0x19, 0x34, 0x13, 0x06, 0x14, 0xF1, 0xFF, 0x20, 
    0xE7, 0xF8, 0x1C, 0x18, 0x13, 0x43, 0x0E, 0x1A, 
    0x1D, 0x0C, 0xFC, 0x1D, 0xED, 0xFE, 0x44, 0xE2, 
    0xE3, 0x4A, 0x00, 0xF2, 0x32, 0x10, 0x0E, 0x26, 
    0x03, 0x01, 0x12, 0xE0, 0xFB, 0x4A, 0x18, 0x25, 
    0x18, 0xE1, 0x11, 0x21, 0x13, 0x19, 0x14, 0x0E, 
    0x07, 0x1D, 0x0D, 0x06, 0x15, 0x1B, 0x09, 0x2E, 
    0xF5, 0x10, 0x1D, 0xE5, 0x07, 0xD3, 0xFA, 0xFF, 
    0xCA, 0xFA, 0x1D, 0xF0, 0x0E, 0x1B, 0xFA, 0x1C, 
    0x1C, 0xF8, 0xF2, 0x10, 0x05, 0x10, 0xFD, 0xEF, 
    0xEA, 0xE8, 0xEE, 0x02, 0x0C, 0xDF, 0x1F, 0xFB, 
    0xF4, 0x06, 0xF5, 0xF1, 0xFC, 0xE9, 0xFE, 0xFA, 
    0xFE, 0xD4, 0x27, 0xE9, 0xEC, 0xF9, 0x09, 0xFC, 
    0xF8, 0xEF, 0x0A, 0x13, 0xF7, 0xE1, 0x1B, 0x1D, 
    0x05, 0x07, 0xEF, 0xEA, 0xEC, 0x08, 0xFF, 0xFD, 
    0x1F, 0x10, 0x18, 0xFE, 0x03, 0xF6, 0x10, 0xE7, 
    0xF8, 0xF2, 0xE7, 0x18, 0xFA, 0x0C, 0x0B, 0x03, 
    0x37, 0xFF, 0x04, 0x30, 0x08, 0x09, 0x17, 0xF6, 
    0xF9, 0x0B, 0xE6, 0xF0, 0x0D, 0xEB, 0x10, 0x2B, 
    0xFB, 0xE7, 0x1A, 0xEF, 0xE6, 0x1E, 0x09, 0xFE, 
    0x1D, 0xEB, 0xDA, 0x34, 0xF2, 0xEC, 0x0D, 0xF7, 
    0xFF, 0x0E, 0xE2, 0xF0, 0x37, 0xE8, 0x17, 0x16, 
    0xFE, 0x01, 0x06, 0x06, 0x10, 0x03, 0xF0, 0x03, 
    0x1C, 0xFB, 0x02, 0x09, 0x14, 0xF8, 0xF5, 0xFD, 
    0x18, 0x05, 0xF6, 0xE6, 0xF0, 0xF6, 0x09, 0x13, 
    0xFA, 0xF7, 0xDF, 0x09, 0xFE, 0x04, 0xF4, 0xEE, 
    0xF0, 0x0A, 0x07, 0x11, 0x02, 0x19, 0x16, 0x05, 
    0x0D, 0xE6, 0x0E, 0xFF, 0x10, 0xEB, 0xFF, 0xE0, 
    0xF3, 0xF9, 0xFF, 0x1E, 0xF4, 0xEE, 0xFF, 0x02, 
    0xDE, 0xFE, 0x01, 0xE9, 0xEA, 0x0E, 0xD9, 0x1E, 
    0xEC, 0xF3, 0xF1, 0xEF, 0xFF, 0xF1, 0x15, 0xEE, 
    0x13, 0x0C, 0xDB, 0xF5, 0x12, 0xE1, 0x12, 0x1F, 
    0x0D, 0xF0, 0x20, 0xF5, 0x13, 0xDF, 0x0A, 0x1B, 
    0x1C, 0x0A, 0xE9, 0xF6, 0xFD, 0xF6, 0xEC, 0xF8, 
    0xED, 0x0A, 0x0E, 0xE6, 0xFC, 0x0C, 0xFD, 0x08, 
    0x0F, 0x0F, 0xE7, 0x23, 0x0D, 0x00, 0x23, 0xF4, 
    0x14, 0x3E, 0xEE, 0xF2, 0x41, 0xE4, 0x0F, 0x28, 
    0xF7, 0xF8, 0x19, 0xE8, 0xE5, 0x37, 0xF7, 0xED, 
    0x15, 0x11, 0x10, 0xFA, 0xF2, 0x0C, 0x02, 0x1D, 
    0xEC, 0x13, 0x0A, 0x04, 0x12, 0xF5, 0xE7, 0xF7, 
    0x06, 0x16, 0xF8, 0xF4, 0xF0, 0x01, 0x1A, 0xE3, 
    0x12, 0xFA, 0xF2, 0x12, 0x20, 0xFB, 0xE2, 0xE7, 
    0x2A, 0xE0, 0x01, 0x0C, 0xDE, 0xFB, 0x1E, 0xF1, 
    0xF9, 0x11, 0x08, 0x04, 0x0A, 0xFC, 0x15, 0xE1, 
    0xF6, 0xF8, 0x20, 0x0B, 0x20, 0xEB, 0xF2, 0xFA, 
    0x18, 0xE1, 0x08, 0x1A, 0xDB, 0x0D, 0xFF, 0xD5, 
    0x04, 0xFE, 0x0D, 0x1C, 0xF2, 0xF7, 0x05, 0xF4, 
    0xDF, 0xEB, 0x18, 0xF4, 0xF1, 0xF0, 0xED, 0x03, 
    0x09, 0xD4, 0xF1, 0xF6, 0x0D, 0x1A, 0x21, 0xE4, 
    0xE6, 0xF6, 0xD5, 0x14, 0x00, 0x1A, 0xFD, 0x02, 
    0x0C, 0x0A, 0x09, 0x10, 0xE9, 0x11, 0xF6, 0xF5, 
    0x10, 0xF1, 0xF8, 0x09, 0x03, 0x0A, 0x1A, 0x1A, 
    0xFF, 0xF9, 0x0C, 0x1D, 0xEC, 0xF1, 0x07, 0x16, 
    0x12, 0x09, 0xE2, 0x27, 0xF1, 0xF2, 0x1E, 0xEB, 
    0x0F, 0x0B, 0xE9, 0xF9, 0x1D, 0xEC, 0xF3, 0x25, 
    0x07, 0xFE, 0x13, 0xEF, 0xF6, 0xF2, 0x0C, 0xE7, 
    0xED, 0x07, 0x13, 0xF5, 0x01, 0x04, 0xF6, 0x08, 
    0x20, 0xE5, 0xFF, 0x03, 0x15, 0x0E, 0xFD, 0xE1, 
    0xFC, 0x25, 0xDE, 0x00, 0x00, 0xD3, 0x1E, 0x05, 
    0x15, 0x26, 0x31, 0x07, 0x03, 0x19, 0xEE, 0x2C, 
    0x04, 0x01, 0xF9, 0x01, 0x14, 0xF9, 0x1D, 0xD8, 
    0x19, 0xF3, 0xF6, 0xFA, 0xFF, 0xF7, 0x0B, 0xFA, 
    0xFE, 0x19, 0x23, 0xFA, 0x0D, 0x11, 0x0C, 0x03, 
    0x17, 0xF3, 0x17, 0xEE, 0x01, 0xF2, 0x22, 0xD8, 
    0x08, 0x1A, 0x04, 0xF5, 0xF6, 0xFD, 0x04, 0x08, 
    0x0D, 0x05, 0x11, 0xD2, 0x1C, 0xF2, 0x02, 0x17, 
    0x00, 0xDE, 0xE7, 0x21, 0x05, 0xEB, 0xE3, 0xF4, 
    0xE2, 0xF8, 0xE7, 0xFC, 0x0D, 0x17, 0xEE, 0x1C, 
    0x04, 0xF1, 0xEF, 0x0B, 0x0F, 0xE5, 0x19, 0x19, 
    0xF7, 0xF9, 0x0D, 0x11, 0x17, 0x07, 0x0E, 0x01, 
    0xE9, 0xE2, 0xFC, 0x16, 0x05, 0x48, 0x06, 0xED, 
    0x38, 0xE1, 0x0D, 0x3C, 0xE5, 0xF8, 0x26, 0xDF, 
    0x05, 0xFE, 0xFF, 0xFA, 0xFF, 0xFB, 0xEC, 0xFC, 
    0xDF, 0x0E, 0xFE, 0x10, 0xEF, 0x1D, 0x16, 0x00, 
    0xF9, 0xFA, 0xFA, 0xFB, 0xF1, 0xEF, 0xEF, 0x0E, 
    0xFC, 0xDA, 0x26, 0x14, 0xDE, 0xFD, 0xFC, 0xFE, 
    0x2D, 0xFF, 0xDF, 0xF8, 0x18, 0xF0, 0x3B, 0x0F, 
    0xF9, 0x1F, 0x1C, 0xEC, 0x3E, 0xE6, 0xE4, 0x15, 
    0x07, 0xED, 0x01, 0x18, 0x09, 0x00, 0x1B, 0xCF, 
    0x28, 0xF2, 0xFC, 0x00, 0x2C, 0xCD, 0x24, 0x1A, 
    0x08, 0x0B, 0x19, 0xEE, 0xFC, 0x06, 0xD0, 0x20, 
    0xF2, 0x01, 0x19, 0xE7, 0xE5, 0x29, 0xFD, 0xE2, 
    0x28, 0xE5, 0xD5, 0x0B, 0xFD, 0xE1, 0x1E, 0xD7, 
    0xD5, 0x22, 0x1F, 0xDB, 0xEC, 0xD7, 0x0C, 0x06, 
    0x1C, 0x17, 0xF5, 0xFB, 0xEE, 0x0A, 0x1A, 0x19, 
    0xE5, 0x00, 0xE5, 0xF9, 0x0D, 0x08, 0xF1, 0xFE, 
    0xEE, 0xF8, 0x2A, 0x06, 0x0A, 0xE5, 0x24, 0xFE, 
    0x0B, 0x40, 0xEF, 0x27, 0x4C, 0xD6, 0xDF, 0x13, 
    0xF4, 0x2C, 0x1A, 0xF9, 0xF3, 0x19, 0xFF, 0x20, 
    0x2A, 0xE2, 0x11, 0x11, 0x0A, 0x08, 0xF4, 0x0C, 
    0x21, 0x0B, 0x17, 0xF1, 0xE6, 0xEA, 0xEA, 0x0E, 
    0x07, 0x10, 0xEC, 0xEB, 0x24, 0xDF, 0x08, 0x14, 
    0xF2, 0x07, 0x0B, 0xF1, 0x29, 0xF9, 0x06, 0x25, 
    0x0C, 0xDF, 0x28, 0x04, 0xE2, 0x2D, 0x12, 0xF6, 
    0xFD, 0x17, 0xE1, 0x05, 0x29, 0x0E, 0x30, 0x0C, 
    0xE4, 0x31, 0x28, 0xFC, 0xFB, 0x0A, 0xF6, 0x27, 
    0x28, 0x05, 0x2B, 0xF8, 0xD1, 0x16, 0x01, 0xF9, 
    0x02, 0xEE, 0xE9, 0x0B, 0xFC, 0xF1, 0x31, 0xE1, 
    0xF0, 0x00, 0x0B, 0xF2, 0x32, 0xE4, 0xD9, 0x2E, 
    0xFF, 0xF8, 0x08, 0x01, 0xF9, 0x14, 0x09, 0xF2, 
    0x1F, 0x00, 0xE0, 0x16, 0xF5, 0xF2, 0x0C, 0x00, 
    0xDC, 0x09, 0x14, 0xE4, 0x19, 0x22, 0xF2, 0xFF, 
    0xF2, 0xFB, 0x17, 0xF6, 0xF2, 0xEC, 0x28, 0x02, 
    0x10, 0xE7, 0x16, 0x29, 0xDB, 0x0F, 0xFB, 0x10, 
    0x14, 0xDF, 0xFE, 0x20, 0x0D, 0xFA, 0xF9, 0x14, 
    0xF2, 0x06, 0x03, 0xF6, 0x1C, 0xE7, 0x10, 0xFF, 
    0x13, 0xF5, 0x20, 0x18, 0xF8, 0xE2, 0xEB, 0xF7, 
    0x06, 0x17, 0x1A, 0x09, 0x1B, 0xFD, 0xDF, 0x17, 
    0xF1, 0xF7, 0xF5, 0xEA, 0xFF, 0x10, 0x16, 0x0C, 
    0x07, 0x07, 0xEB, 0x15, 0x1D, 0xE0, 0x02, 0xEB, 
    0x07, 0x11, 0x16, 0xE1, 0x1D, 0x25, 0x0D, 0x15, 
    0x00, 0xFF, 0x17, 0xFE, 0xE2, 0x02, 0x2B, 0x14, 
    0x28, 0xF5, 0x0E, 0x06, 0x09, 0x13, 0x04, 0xF8, 
    0xE0, 0x29, 0xFF, 0xFE, 0x2F, 0xF2, 0xD9, 0x30, 
    0x05, 0x06, 0xFA, 0x14, 0x06, 0x04, 0x26, 0x08, 
    0xF7, 0x1D, 0xDF, 0x08, 0x05, 0x12, 0x2B, 0xED, 
    0xD8, 0x0D, 0xF7, 0xEA, 0xF0, 0x1B, 0xF0, 0xFF, 
    0x16, 0xE1, 0x1D, 0x27, 0xFF, 0x15, 0xF2, 0x07, 
    0xFD, 0xF6, 0x03, 0xFC, 0xFA, 0x09, 0x07, 0x08, 
    0xE8, 0xF7, 0x1E, 0x04, 0x1D, 0xED, 0x04, 0x07, 
    0xDE, 0x04, 0x00, 0xFB, 0x2A, 0xF8, 0x02, 0x1E, 
    0x00, 0xFF, 0xFC, 0xFA, 0x1A, 0x26, 0x06, 0xE8, 
    0x22, 0x13, 0xFD, 0x03, 0x05, 0xEF, 0x17, 0x09, 
    0x17, 0x0A, 0x1C, 0xE4, 0xE2, 0xF9, 0x15, 0x09, 
    0xEC, 0x08, 0xE5, 0xE5, 0xEF, 0x01, 0xEE, 0x1C, 
    0xFE, 0x08, 0x27, 0xEF, 0x13, 0xEA, 0xD6, 0x22, 
    0x02, 0xD4, 0x04, 0xF1, 0xE9, 0x10, 0x1B, 0xF0, 
    0xED, 0x15, 0xFF, 0x07, 0xF7, 0xE5, 0x16, 0xF9, 
    0xE7, 0xF4, 0x0B, 0xE0, 0x0C, 0x30, 0x04, 0x0E, 
    0x27, 0xFF, 0x1C, 0x1D, 0x0F, 0x25, 0xF5, 0xDC, 
    0x17, 0x08, 0x00, 0x05, 0x01, 0xD9, 0x06, 0x0C, 
    0xD6, 0x16, 0x0E, 0xEB, 0x0D, 0xF7, 0xDF, 0x2A, 
    0x0D, 0x00, 0x15, 0x01, 0xE0, 0x0D, 0x24, 0xFF, 
    0x23, 0xFC, 0xDF, 0x00, 0xF4, 0xF4, 0xF4, 0x01, 
    0x05, 0x25, 0x13, 0xF3, 0xF7, 0xF2, 0x09, 0x02, 
    0x23, 0xEB, 0x0E, 0xEB, 0x0D, 0x13, 0x0A, 0x05, 
    0x1B, 0xF3, 0x16, 0x0B, 0xFD, 0x08, 0x09, 0x0D, 
    0x29, 0x05, 0x05, 0x2C, 0xE4, 0xFC, 0x36, 0xF6, 
    0xE1, 0x32, 0x15, 0xFD, 0x2C, 0xFC, 0x09, 0x01, 
    0x11, 0x0D, 0x2F, 0x08, 0x1A, 0xEF, 0x05, 0x00, 
    0x10, 0x0F, 0x17, 0x1A, 0x03, 0xE4, 0xEC, 0xEB, 
    0x03, 0x18, 0xE9, 0xE3, 0xEA, 0xF7, 0xEF, 0xF7, 
    0xFD, 0x03, 0x00, 0x20, 0xE6, 0x03, 0x15, 0xFB, 
    0xE6, 0xEC, 0x13, 0xE0, 0x0C, 0xE0, 0xDC, 0x1F, 
    0x0A, 0x0E, 0x10, 0xF6, 0xF4, 0x15, 0x00, 0xE5, 
    0x00, 0xE5, 0xE8, 0x23, 0x18, 0xE3, 0x0B, 0x06, 
    0xDF, 0xFF, 0xEF, 0x06, 0xFD, 0xFC, 0x04, 0xFC, 
    0x00, 0xEE, 0x1E, 0x0A, 0xEA, 0x04, 0xF6, 0xF9, 
    0x01, 0x07, 0x11, 0xEF, 0xFD, 0x16, 0x1C, 0x15, 
    0xF0, 0x19, 0x05, 0xFE, 0x10, 0x23, 0xE1, 0x21, 
    0xF2, 0xF3, 0xEF, 0xEA, 0xF8, 0xEA, 0x0E, 0xEB, 
    0x1E, 0xFB, 0x14, 0xFC, 0xEC, 0x12, 0x01, 0xFF, 
    0x0A, 0x1C, 0xF9, 0x04, 0x18, 0x11, 0xF7, 0x15, 
    0xED, 0x3D, 0xF2, 0xF5, 0x15, 0x0E, 0xEF, 0x0C, 
    0x09, 0x12, 0x2A, 0xE4, 0x02, 0x23, 0xFC, 0x23, 
    0x12, 0xEE, 0xF9, 0x0F, 0x17, 0x18, 0x1C, 0xF6, 
    0x0D, 0x11, 0xE0, 0xEF, 0x1E, 0xE2, 0xFA, 0xF9, 
    0xF2, 0x1B, 0x0F, 0xF5, 0xF3, 0x26, 0x02, 0x12, 
    0x22, 0xFC, 0x01, 0x03, 0x18, 0x0E, 0xFD, 0x1D, 
    0x14, 0x03, 0x02, 0x0B, 0xE9, 0x0F, 0xF8, 0x0A, 
    0xE9, 0xF7, 0xEC, 0xE8, 0x0E, 0x07, 0x1B, 0x14, 
    0xE5, 0x18, 0x05, 0xE6, 0x12, 0xE1, 0x0C, 0x0F, 
    0x11, 0xEA, 0xFD, 0x09, 0xFF, 0xE9, 0x05, 0x02, 
    0xF6, 0xEE, 0x08, 0x13, 0xEB, 0xF2, 0x01, 0xED, 
    0xF2, 0xEE, 0xEC, 0x1D, 0x10, 0x11, 0xE4, 0x0C, 
    0x11, 0xFA, 0x01, 0x00, 0xE1, 0x11, 0x22, 0xFB, 
    0xEB, 0x0B, 0x02, 0x1F, 0xF9, 0x0F, 0xEF, 0x05, 
    0xF2, 0xEE, 0x07, 0xFE, 0x03, 0x14, 0x04, 0x12, 
    0xF2, 0x20, 0x0A, 0x74, 0x00, 0xEE, 0xE8, 0x05, 
    0xF0, 0x20, 0x12, 0x0D, 0x0C, 0x14, 0x1C, 0x33, 
    0x44, 0x08, 0x1C, 0x38, 0x04, 0x35, 0x12, 0x0B, 
    0x0A, 0x39, 0xFC, 0x12, 0x2A, 0xEF, 0x04, 0x0A, 
    0x1C, 0xFD, 0x30, 0x06, 0xEA, 0x3D, 0x10, 0x15, 
    0x05, 0x01, 0xE4, 0x00, 0xEE, 0x24, 0x23, 0xF1, 
    0x03, 0x1D, 0x12, 0x28, 0x24, 0xE5, 0xE9, 0xF5, 
    0x0F, 0x06, 0x1A, 0xF0, 0x07, 0xF1, 0x02, 0xFA, 
    0x19, 0x01, 0x25, 0xEF, 0x08, 0x23, 0xF7, 0x0E, 
    0x0D, 0xE8, 0xEC, 0x1E, 0xF5, 0x0A, 0x17, 0xFE, 
    0xF1, 0xF6, 0xF1, 0xF4, 0x07, 0x0A, 0xFD, 0x12, 
    0x1F, 0xE6, 0x11, 0x1C, 0xEB, 0xE4, 0x07, 0x14, 
    0x10, 0x0F, 0x16, 0xE2, 0xEA, 0xF7, 0x02, 0x19, 
    0x20, 0xF9, 0x0A, 0xF0, 0xFA, 0x00, 0xEE, 0xF9, 
    0x13, 0xF4, 0x15, 0xFB, 0x16, 0x12, 0x14, 0xE9, 
    0xFC, 0x04, 0x05, 0x12, 0x02, 0x1C, 0x22, 0xEE, 
    0x25, 0x15, 0xFD, 0xFC, 0xFA, 0xFB, 0x41, 0x15, 
    0xEC, 0xF5, 0xFF, 0x0D, 0xF2, 0x08, 0x12, 0x11, 
    0x2A, 0xF2, 0xFA, 0xE5, 0x1B, 0x28, 0x11, 0xFD, 
    0xFA, 0x24, 0xE4, 0x2B, 0x1F, 0xE9, 0x13, 0xE8, 
    0x06, 0x01, 0x23, 0xF1, 0x0C, 0xE8, 0xD4, 0x0A, 
    0x0A, 0xCB, 0x05, 0x05, 0xEA, 0x17, 0x08, 0xEC, 
    0x22, 0x0F, 0xE1, 0x24, 0x0B, 0xDB, 0x19, 0xEF, 
    0x0B, 0xFA, 0xFE, 0xE9, 0x1D, 0x0E, 0x0D, 0xF1, 
    0x06, 0x0B, 0x15, 0x11, 0x1A, 0x11, 0x1F, 0xFB, 
    0xEC, 0xEA, 0x01, 0x12, 0x0B, 0x35, 0x0E, 0x0F, 
    0x05, 0x0B, 0x1C, 0x1D, 0x0F, 0xEA, 0xFB, 0xEE, 
    0x08, 0x25, 0x12, 0xF9, 0x11, 0x0E, 0x1D, 0x41, 
    0xEE, 0x02, 0xF7, 0x0A, 0x0A, 0x15, 0xEC, 0xFA, 
    0x15, 0xFD, 0xFB, 0xFF, 0x11, 0xF1, 0x01, 0x19, 
    0x22, 0xD1, 0xEF, 0x13, 0xDE, 0x20, 0x02, 0xD1, 
    0xF8, 0x13, 0xDF, 0x24, 0x1E, 0xD1, 0xF1, 0xE3, 
    0xD6, 0x0E, 0x13, 0xDB, 0xFF, 0x17, 0xE5, 0x08, 
    0x24, 0x17, 0x0F, 0x1D, 0xED, 0x13, 0x2D, 0xF2, 
    0x19, 0x0C, 0x01, 0xF0, 0x19, 0xEF, 0x15, 0x18, 
    0xEA, 0x1B, 0xF5, 0xD6, 0x0A, 0x12, 0xFF, 0x18, 
    0x23, 0xF4, 0xF3, 0x0B, 0x00, 0x1C, 0x1F, 0xDC, 
    0x23, 0xF4, 0xFE, 0x25, 0x1B, 0xC9, 0xF8, 0xDF, 
    0xEE, 0xF2, 0x07, 0xFE, 0xFB, 0x04, 0xEF, 0xFC, 
    0xF8, 0xC5, 0x2E, 0xE4, 0xF8, 0x0F, 0x07, 0xCD, 
    0xFD, 0xFE, 0xE9, 0x11, 0xF5, 0xDC, 0x11, 0xD9, 
    0x04, 0x08, 0xF3, 0xDC, 0xED, 0x16, 0xD9, 0x1E, 
    0xE4, 0x23, 0xF4, 0xF0, 0x0C, 0x03, 0x06, 0x38, 
    0xEC, 0x25, 0x23, 0x0B, 0xF2, 0x35, 0x15, 0xFC, 
    0x24, 0xF1, 0xF6, 0x5C, 0xF8, 0xFC, 0x30, 0xEE, 
    0xF5, 0x38, 0xE2, 0x08, 0x3A, 0x00, 0x16, 0x2E, 
    0xFD, 0x1F, 0x4A, 0xFB, 0xEE, 0x35, 0xF9, 0x11, 
    0x1A, 0xFB, 0xF2, 0x15, 0xEF, 0x1F, 0xF9, 0x1F, 
    0x24, 0x0B, 0x11, 0xE6, 0xD9, 0x0E, 0xFF, 0xE2, 
    0x00, 0xF9, 0xFA, 0x11, 0xF6, 0x09, 0x26, 0xFD, 
    0xD6, 0xF4, 0x25, 0x07, 0xF6, 0x17, 0xE3, 0x28, 
    0x1F, 0xF0, 0x22, 0x0B, 0xCF, 0x1C, 0x23, 0x10, 
    0x1E, 0x1E, 0xDE, 0x04, 0x10, 0x08, 0x2A, 0xEC, 
    0x05, 0x17, 0x1C, 0xEC, 0x10, 0xD6, 0xF6, 0x10, 
    0xFF, 0xC9, 0x07, 0xFE, 0xDE, 0x12, 0x28, 0xD6, 
    0xFE, 0xEA, 0xFB, 0x27, 0x22, 0xEF, 0x26, 0xF9, 
    0xFE, 0x37, 0x14, 0xE7, 0x30, 0xE6, 0xF6, 0x03, 
    0x1F, 0xD5, 0x0A, 0x21, 0xD6, 0x13, 0xEF, 0xF0, 
    0xE9, 0x05, 0xF5, 0x0A, 0xED, 0x0F, 0x14, 0xF8, 
    0x32, 0x10, 0xD9, 0x3A, 0xF8, 0x39, 0x29, 0xF4, 
    0xF2, 0x3A, 0xE9, 0x42, 0x2B, 0xFB, 0xE7, 0x56, 
    0xC7, 0x10, 0x2F, 0xE4, 0xF6, 0x42, 0xF3, 0x2B, 
    0x34, 0xFA, 0xE0, 0x39, 0xE1, 0x40, 0x34, 0x06, 
    0x0B, 0x4E, 0xDA, 0x4D, 0x4A, 0xF9, 0x04, 0x5B, 
    0x0D, 0x0E, 0x32, 0x06, 0xE7, 0x59, 0xFF, 0x17, 
    0x0F, 0x20, 0x1C, 0x1E, 0x21, 0x08, 0xF9, 0xFD, 
    0x28, 0x19, 0x2C, 0x1C, 0x09, 0x11, 0xF9, 0xFD, 
    0xEF, 0x19, 0xD3, 0x11, 0x1B, 0xB1, 0x2B, 0x14, 
    0xFF, 0x05, 0xF9, 0x00, 0xF4, 0x0B, 0x09, 0x04, 
    0x1F, 0x19, 0x18, 0x0E, 0x07, 0xF1, 0x20, 0xFE, 
    0x0B, 0xEB, 0xFD, 0x0A, 0x28, 0xF8, 0x27, 0xF2, 
    0xE1, 0x16, 0xF6, 0xEC, 0x0B, 0xE1, 0xE1, 0x26, 
    0x0D, 0xFB, 0x1A, 0xF1, 0xE0, 0x24, 0x1E, 0xF6, 
    0x1F, 0xED, 0xDA, 0x2E, 0x14, 0xE1, 0xEE, 0x07, 
    0xF9, 0x05, 0xE5, 0x16, 0x02, 0x01, 0xFF, 0xE9, 
    0xE4, 0x1A, 0xF7, 0xEE, 0x2C, 0xF9, 0xD7, 0xEB, 
    0x0D, 0x16, 0x46, 0xF4, 0xE2, 0x24, 0xDB, 0x1E, 
    0x14, 0xDB, 0x05, 0x17, 0xE8, 0x16, 0x34, 0xE9, 
    0x00, 0xF4, 0xF8, 0x10, 0x51, 0xF6, 0xE1, 0x23, 
    0xD6, 0x10, 0x43, 0xD6, 0x00, 0x16, 0x03, 0xFB, 
    0x53, 0xFB, 0xD8, 0x2D, 0xE0, 0x35, 0x5F, 0xE2, 
    0x10, 0x3B, 0x03, 0x31, 0x6B, 0xE3, 0x17, 0x1C, 
    0xF6, 0x30, 0x60, 0x0B, 0xFB, 0x39, 0x1A, 0x34, 
    0x1D, 0x08, 0xFD, 0x0F, 0xFE, 0xD6, 0x08, 0x25, 
    0x28, 0xEB, 0xFC, 0xF2, 0xB3, 0x22, 0x1F, 0xE2, 
    0xFD, 0xF4, 0xC5, 0x0E, 0x10, 0x06, 0xF1, 0x18, 
    0xF5, 0x0F, 0x1B, 0x0B, 0xEF, 0xF3, 0x0B, 0x27, 
    0x0D, 0xE3, 0x03, 0xF6, 0xE2, 0xF3, 0x22, 0xDC, 
    0x0B, 0xE7, 0xD4, 0x23, 0x06, 0xF1, 0x1A, 0xF4, 
    0xE6, 0x0E, 0x10, 0xE9, 0x12, 0xF0, 0x04, 0x05, 
    0xE2, 0xF3, 0xE6, 0xFE, 0xF0, 0x02, 0x0A, 0xE6, 
    0x09, 0xE5, 0xF3, 0x0B, 0x24, 0xE6, 0x0F, 0x1A, 
    0x03, 0x0F, 0x2A, 0xE7, 0x1B, 0xF8, 0xE9, 0xE2, 
    0x0D, 0xF4, 0x36, 0x2B, 0x0F, 0xEE, 0x16, 0x0C, 
    0x27, 0xFF, 0xE1, 0x04, 0xEE, 0xE3, 0x05, 0x1C, 
    0xEA, 0xD6, 0x13, 0xE1, 0xF4, 0x11, 0x14, 0x03, 
    0xF9, 0xE8, 0x09, 0x04, 0xFD, 0xFB, 0x2D, 0xED, 
    0x04, 0xDB, 0x15, 0x09, 0x1C, 0xE3, 0xFA, 0xE3, 
    0x0C, 0xFB, 0x16, 0xF9, 0x1D, 0x06, 0x12, 0xEA, 
    0xF0, 0x0A, 0x12, 0x3C, 0x18, 0x04, 0x06, 0x42, 
    0xEF, 0xEF, 0xDE, 0x0A, 0x0D, 0xD5, 0xFD, 0xFB, 
    0xEA, 0x06, 0x13, 0xEF, 0x29, 0xF0, 0xF9, 0xF8, 
    0x1C, 0xEF, 0xFC, 0xD3, 0xDB, 0x1F, 0x06, 0xFA, 
    0x1A, 0xF6, 0xEC, 0x1B, 0xE5, 0xED, 0xEE, 0x03, 
    0xF2, 0x09, 0xEB, 0xE0, 0xDE, 0x09, 0xF0, 0xF4, 
    0xF7, 0x17, 0xDD, 0xF2, 0x09, 0x0A, 0x07, 0x16, 
    0xF3, 0x0D, 0xE1, 0x0B, 0xFF, 0x0A, 0xDB, 0x05, 
    0xFC, 0x06, 0xE2, 0xEA, 0xF9, 0xE9, 0xF0, 0x09, 
    0xFE, 0xF4, 0x08, 0xDF, 0xF3, 0x11, 0x13, 0xDC, 
    0x1D, 0xE6, 0xD7, 0x17, 0x28, 0xD9, 0x34, 0x0B, 
    0xEE, 0x1C, 0x0F, 0xD5, 0x15, 0xD4, 0xD8, 0x12, 
    0xF8, 0x03, 0x04, 0x0A, 0x06, 0xEC, 0x04, 0xFC, 
    0xED, 0xFA, 0x02, 0x16, 0x18, 0xD9, 0xFA, 0x08, 
    0xF0, 0x1F, 0x31, 0xDD, 0x10, 0x18, 0xEF, 0x0A, 
    0x1D, 0xFC, 0x46, 0xFF, 0xD6, 0x23, 0x41, 0xC1, 
    0x25, 0xE9, 0xD5, 0x1F, 0x36, 0xD9, 0x15, 0xDF, 
    0xE0, 0x39, 0x0B, 0xFE, 0x17, 0xEF, 0xEF, 0x18, 
    0x1B, 0x35, 0x20, 0x07, 0xD8, 0x30, 0x12, 0x2F, 
    0x03, 0x1C, 0xEB, 0x12, 0xF1, 0xF9, 0xE9, 0x06, 
    0xF1, 0x09, 0x1C, 0x0F, 0xE6, 0xD0, 0x0D, 0x14, 
    0x16, 0x08, 0xFC, 0xE7, 0xEB, 0x08, 0xF5, 0x25, 
    0xCF, 0xDE, 0xEE, 0x05, 0x08, 0x20, 0xD6, 0xD6, 
    0xEE, 0x14, 0xE5, 0xEF, 0xDE, 0x00, 0x0D, 0x18, 
    0xFA, 0x1A, 0xDF, 0x26, 0x06, 0x0F, 0xE2, 0xDE, 
    0xD7, 0x2B, 0x21, 0xDE, 0x06, 0x04, 0xD3, 0x02, 
    0xEE, 0xDA, 0x22, 0xEA, 0xE8, 0xF7, 0xF2, 0x19, 
    0x16, 0xE7, 0x00, 0x02, 0xD0, 0x06, 0x15, 0xFD, 
    0x0C, 0xEF, 0xE4, 0x09, 0x1D, 0xFC, 0xF9, 0x03, 
    0x03, 0x04, 0x02, 0xFE, 0x02, 0xE3, 0xF3, 0xF5, 
    0x13, 0x16, 0x37, 0xF3, 0xE9, 0xFE, 0x11, 0xE8, 
    0x48, 0x15, 0xC9, 0x26, 0x23, 0xF0, 0x44, 0x12, 
    0xC6, 0x3E, 0x3C, 0x03, 0x30, 0x04, 0xC5, 0x4D, 
    0x22, 0x0B, 0x3D, 0x10, 0xCE, 0x50, 0x30, 0xE3, 
    0x24, 0xFF, 0xFA, 0x36, 0x0F, 0x18, 0x20, 0x31, 
    0x3F, 0x25, 0x2D, 0x00, 0x20, 0xF0, 0x03, 0x0D, 
    0x0E, 0x05, 0x0B, 0x19, 0x02, 0x1B, 0xF2, 0x1F, 
    0xFB, 0x22, 0x0D, 0xF8, 0xF8, 0x1E, 0xFA, 0x30, 
    0x09, 0xF9, 0x02, 0xEA, 0xEF, 0x24, 0xE7, 0xE5, 
    0x11, 0x0F, 0xDA, 0x07, 0x07, 0x01, 0xE0, 0xF4, 
    0x08, 0x0F, 0x08, 0xEA, 0x02, 0x04, 0xC9, 0xF1, 
    0xF3, 0x0F, 0xE9, 0xFA, 0xE1, 0x13, 0xD5, 0xDC, 
    0x07, 0x02, 0xF3, 0xE1, 0xE5, 0xD1, 0xC6, 0xF2, 
    0xE4, 0x0D, 0xFF, 0xDC, 0xEE, 0x1A, 0xDF, 0x12, 
    0xFC, 0xE9, 0xE4, 0x07, 0xF1, 0x22, 0x12, 0xEF, 
    0x29, 0x43, 0xD6, 0x37, 0x05, 0x06, 0x05, 0x27, 
    0xE6, 0x44, 0xFA, 0xFA, 0x2C, 0x4C, 0x1D, 0x37, 
    0xFD, 0x08, 0x1A, 0x47, 0xEE, 0x12, 0x21, 0x41, 
    0x1D, 0x1D, 0x1C, 0x0F, 0x1F, 0x18, 0x0B, 0x07, 
    0x1F, 0x0F, 0xE2, 0x37, 0x35, 0xFE, 0x46, 0x03, 
    0xED, 0x15, 0x2B, 0x09, 0x18, 0x02, 0xF5, 0x3E, 
    0x28, 0x04, 0x3B, 0x3F, 0x06, 0x2B, 0x06, 0xF9, 
    0x11, 0x25, 0xD0, 0xFA, 0x12, 0xF9, 0x17, 0xF7, 
    0x00, 0x0D, 0x1C, 0xC4, 0x12, 0x07, 0xD6, 0x1D, 
    0x04, 0x02, 0x13, 0x34, 0x09, 0x2C, 0x1C, 0xFE, 
    0x21, 0x35, 0xDA, 0xF3, 0x07, 0x05, 0xE8, 0x19, 
    0xDE, 0x13, 0x02, 0x28, 0x0B, 0x1B, 0xFD, 0x0A, 
    0xF3, 0xF3, 0xFB, 0xEB, 0xE7, 0x0A, 0xC9, 0x1F, 
    0xE9, 0x22, 0x0D, 0xD9, 0xBE, 0xFC, 0xD0, 0x1B, 
    0xEE, 0xEE, 0xE1, 0x05, 0xD3, 0x26, 0x13, 0xC7, 
    0xBD, 0x20, 0xF9, 0x14, 0x21, 0xD9, 0xE8, 0x02, 
    0xD4, 0x2C, 0x29, 0xB5, 0xD1, 0x0F, 0xCA, 0x57, 
    0x10, 0xAB, 0xE6, 0x35, 0xB9, 0x6A, 0x3E, 0xE1, 
    0xD8, 0x28, 0xE3, 0x7F, 0x44, 0xE4, 0xDF, 0x0C, 
    0xE0, 0x5A, 0x50, 0xDB, 0xDC, 0xFE, 0xD0, 0x76, 
    0x36, 0x08, 0xF0, 0x04, 0x01, 0x7B, 0x02, 0x14, 
    0x0F, 0x21, 0x0D, 0x59, 0x11, 0x10, 0xF8, 0xF9, 
    0x25, 0x3E, 0xFF, 0xF9, 0x60, 0xDA, 0x64, 0xFC, 
    0xD0, 0x15, 0x35, 0xE6, 0x22, 0xF0, 0xDB, 0x25, 
    0x16, 0xCF, 0x1B, 0xF6, 0xEE, 0x27, 0x42, 0xBF, 
    0x19, 0xE3, 0xD4, 0x38, 0x1E, 0xE5, 0x1C, 0x0A, 
    0xF2, 0x29, 0x00, 0x1F, 0x05, 0x0E, 0xD5, 0x13, 
    0xF7, 0x18, 0xDB, 0x0F, 0xE3, 0xF3, 0xEA, 0x31, 
    0xF7, 0x22, 0x24, 0xE5, 0xCD, 0x0C, 0xC6, 0x05, 
    0x1B, 0xE3, 0xCB, 0x39, 0xBF, 0x0A, 0x1E, 0xF8, 
    0xC0, 0x0E, 0xCD, 0x09, 0xF8, 0xCB, 0xF3, 0x00, 
    0xD2, 0x13, 0xF7, 0xD9, 0xCF, 0xFC, 0xC6, 0x05, 
    0x0E, 0xF3, 0xDA, 0x13, 0xCC, 0xE8, 0x0C, 0xF9, 
    0xD7, 0xFC, 0x13, 0xF1, 0x1D, 0xDA, 0xDD, 0x07, 
    0xFD, 0xE6, 0x23, 0xF3, 0xDB, 0x01, 0x0A, 0x1A, 
    0x14, 0x0C, 0xF1, 0xFF, 0xFB, 0x34, 0x03, 0xFC, 
    0xE2, 0xEC, 0xDF, 0x72, 0xF5, 0x01, 0x0F, 0x0D, 
    0xFA, 0x47, 0x11, 0xE5, 0xF1, 0xFC, 0x01, 0x38, 
    0x13, 0xFA, 0xF1, 0xE9, 0xE2, 0x07, 0x07, 0xF3, 
    0x55, 0xF4, 0x1D, 0xC0, 0xC5, 0x63, 0x29, 0xFE, 
    0x15, 0xD8, 0xCB, 0x31, 0x12, 0xEB, 0x03, 0xDA, 
    0xE4, 0x24, 0x1E, 0xED, 0x17, 0xC8, 0xCE, 0x2F, 
    0xFA, 0x07, 0xEA, 0xD1, 0xF0, 0x3A, 0xFD, 0x35, 
    0x04, 0xEA, 0x0D, 0xFD, 0xF4, 0x1D, 0xCF, 0x01, 
    0xFB, 0xDA, 0xCF, 0x67, 0xD5, 0x34, 0x0B, 0xCB, 
    0xD1, 0x46, 0xBC, 0x26, 0x4A, 0xDE, 0xD7, 0x4C, 
    0xC2, 0x0B, 0x34, 0xD2, 0xBD, 0x29, 0xCD, 0xFC, 
    0x0F, 0xC0, 0xCB, 0xFD, 0xEA, 0xC9, 0x07, 0xDA, 
    0x03, 0xED, 0x00, 0xFA, 0x15, 0xCB, 0x04, 0xFE, 
    0xD6, 0xD5, 0xDE, 0x00, 0xE9, 0xE0, 0x06, 0xFB, 
    0xF4, 0x0F, 0xE3, 0xF5, 0x03, 0xDA, 0xEA, 0xD6, 
    0xE2, 0xE3, 0x0C, 0xD4, 0xE6, 0x0F, 0xEF, 0x02, 
    0xF4, 0xDC, 0x00, 0x11, 0xE6, 0x0B, 0xF6, 0xBB, 
    0xFD, 0x0F, 0xED, 0x04, 0x12, 0xF5, 0xED, 0x07, 
    0x0F, 0x0E, 0xF9, 0xE0, 0x10, 0xEB, 0x1B, 0xF3, 
    0xE5, 0xED, 0x06, 0xE3, 0x2F, 0xF0, 0x2B, 0x17, 
    0xF7, 0x65, 0x5B, 0xFD, 0x39, 0xE5, 0xF6, 0x29, 
    0x30, 0xFD, 0x06, 0xFA, 0x03, 0x2D, 0xF4, 0x37, 
    0xEA, 0x01, 0x01, 0x1E, 0x0B, 0x52, 0x04, 0x2F, 
    0x1A, 0x17, 0xFC, 0x4F, 0xFF, 0x05, 0x1E, 0x0A, 
    0xE6, 0x54, 0xD7, 0x06, 0x2D, 0xD6, 0xF6, 0x30, 
    0x01, 0x31, 0x3C, 0xF2, 0xD0, 0x69, 0xD5, 0x3E, 
    0x4B, 0xD6, 0x02, 0x62, 0xDE, 0x27, 0x5B, 0xB9, 
    0xC6, 0x42, 0xC4, 0x42, 0x2B, 0xE7, 0xF5, 0x14, 
    0xC0, 0x19, 0xFD, 0xCB, 0xD8, 0x29, 0xE5, 0xEE, 
    0xFD, 0xE5, 0xED, 0x1A, 0xE2, 0xF4, 0x02, 0x02, 
    0xDC, 0x00, 0xCE, 0x0B, 0x11, 0xE1, 0xFD, 0x02, 
    0xEF, 0xFC, 0xDD, 0xE1, 0xEC, 0x1C, 0xF9, 0xFF, 
    0xFD, 0x05, 0xD8, 0x22, 0xEE, 0xF1, 0xF8, 0xFE, 
    0xEE, 0xF5, 0xEB, 0xF8, 0x03, 0xDB, 0x06, 0x23, 
    0xE3, 0x13, 0x22, 0xEB, 0xDF, 0x0F, 0x09, 0xFC, 
    0x1D, 0xF5, 0xEB, 0x1D, 0xEF, 0xF3, 0x0B, 0x1B, 
    0x62, 0xFB, 0x39, 0x19, 0xDD, 0x53, 0x28, 0xF3, 
    0x29, 0x09, 0xF2, 0x65, 0x17, 0x06, 0x35, 0x1D, 
    0x1B, 0x24, 0x12, 0x1D, 0x27, 0x0A, 0x34, 0x1C, 
    0x2D, 0x3A, 0x24, 0x31, 0x3D, 0xF2, 0x26, 0x57, 
    0xF6, 0x48, 0x65, 0x1A, 0x03, 0x52, 0x24, 0x46, 
    0x5F, 0xF2, 0x00, 0x24, 0xF1, 0x20, 0x33, 0xE4, 
    0xF1, 0x4F, 0x15, 0x2D, 0x42, 0xD3, 0xEE, 0x2B, 
    0x01, 0x3D, 0x65, 0xE1, 0x1D, 0x42, 0x03, 0x2A, 
    0x2B, 0xE6, 0x14, 0x19, 0x14, 0x42, 0x42, 0xFA, 
    0x1F, 0x01, 0x0C, 0x21, 0x35, 0xF3, 0x33, 0x1E, 
    0x27, 0x26, 0x17, 0xF8, 0x35, 0xF0, 0x55, 0xED, 
    0x17, 0xED, 0xFD, 0xF4, 0x11, 0xF8, 0x1C, 0x05, 
    0x0A, 0x14, 0xF7, 0x10, 0x29, 0xFB, 0x14, 0x06, 
    0x04, 0x1A, 0x29, 0xE6, 0xEA, 0x21, 0x14, 0x25, 
    0x17, 0xDC, 0x00, 0x26, 0x09, 0x2E, 0x1B, 0xF0, 
    0x07, 0x08, 0xED, 0x16, 0xEA, 0x0A, 0xFE, 0x21, 
    0xE5, 0xF8, 0x12, 0x1A, 0xEA, 0x18, 0x04, 0x12, 
    0x37, 0x09, 0x08, 0x20, 0xEC, 0x01, 0x1F, 0xEB, 
    0xE7, 0x2A, 0x04, 0xF0, 0x18, 0x05, 0xEB, 0xF1, 
    0x0F, 0x11, 0x1C, 0xF5, 0x02, 0x0F, 0x18, 0x15, 
    0x0A, 0x10, 0x1A, 0x1B, 0x14, 0xF0, 0x09, 0xED, 
    0xEA, 0xE1, 0x01, 0xEF, 0xFA, 0x00, 0xF1, 0x02, 
    0x12, 0x07, 0xEA, 0x0A, 0xFF, 0x08, 0xF7, 0xF2, 
    0x15, 0x15, 0x1A, 0xF9, 0xF4, 0xE7, 0xF6, 0xFB, 
    0x0B, 0xE6, 0xF7, 0x02, 0xD1, 0xF2, 0xFB, 0xE3, 
    0xF3, 0xE8, 0xE3, 0xEB, 0x01, 0xC7, 0x12, 0x10, 
    0x07, 0xFA, 0x16, 0xCB, 0x01, 0xFC, 0xEA, 0xF8, 
    0x17, 0x07, 0xFF, 0xEB, 0x06, 0xEC, 0x1D, 0x27, 
    0xE3, 0x03, 0x0E, 0x14, 0x0D, 0xFD, 0xF3, 0x19, 
    0xFB, 0xF6, 0x0F, 0x0A, 0xDE, 0xE8, 0x16, 0xF0, 
    0x04, 0x02, 0xE3, 0xF3, 0x20, 0x09, 0xE3, 0x25, 
    0xDB, 0xE8, 0x20, 0xEA, 0xE3, 0x28, 0xE6, 0x1F, 
    0x1F, 0xFD, 0xD4, 0x38, 0xE5, 0x0F, 0x0F, 0x08, 
    0xE3, 0x10, 0xE5, 0x25, 0x09, 0xF3, 0xFF, 0x2E, 
    0x06, 0x0D, 0x06, 0xF4, 0x11, 0x26, 0x0B, 0x17, 
    0x22, 0x11, 0x18, 0x08, 0xE6, 0xF1, 0x17, 0xFE, 
    0xF4, 0x08, 0xE8, 0xEB, 0xE1, 0x00, 0x05, 0xD6, 
    0x11, 0xF5, 0x18, 0x07, 0xFC, 0xFD, 0x12, 0x0B, 
    0xEC, 0x1E, 0x0C, 0xFE, 0x0A, 0xED, 0xDD, 0x05, 
    0xF8, 0x0C, 0x0F, 0x03, 0xD8, 0xFE, 0x18, 0xF8, 
    0x24, 0x0A, 0xF7, 0x24, 0x18, 0xF9, 0x11, 0x04, 
    0x07, 0xE8, 0xFD, 0x03, 0xF7, 0xF5, 0xF3, 0x22, 
    0x24, 0x02, 0x0D, 0xFD, 0xB9, 0x04, 0x03, 0xF4, 
    0x03, 0xE9, 0xD2, 0x05, 0x1E, 0xCE, 0x00, 0xFA, 
    0xC1, 0x1A, 0x08, 0xFD, 0x28, 0x04, 0xF9, 0x1D, 
    0xFE, 0xD3, 0x14, 0x13, 0x03, 0xEF, 0xF2, 0x1C, 
    0xEC, 0xE4, 0x01, 0x0D, 0xFE, 0x1D, 0x01, 0xE0, 
    0x1E, 0x0A, 0x12, 0x32, 0xD8, 0x14, 0x11, 0x0E, 
    0xF9, 0x35, 0xFD, 0x07, 0x21, 0xEA, 0x04, 0x4A, 
    0x12, 0x17, 0x2F, 0xE7, 0x07, 0x0A, 0xE1, 0x20, 
    0x2D, 0xF7, 0xE3, 0x08, 0x05, 0x00, 0x21, 0xF5, 
    0xE5, 0x14, 0x17, 0x04, 0x3E, 0x0C, 0xF1, 0xF1, 
    0x05, 0x26, 0x03, 0xE0, 0x13, 0x0E, 0x0E, 0x21, 
    0xE1, 0x1A, 0x24, 0xE0, 0x01, 0x1D, 0xFB, 0x0E, 
    0x27, 0xF1, 0x04, 0x18, 0xFC, 0xF0, 0x1E, 0xF1, 
    0x13, 0xFF, 0x0D, 0x1B, 0x1D, 0xF8, 0x2C, 0xEA, 
    0xE1, 0xEF, 0x29, 0xFA, 0xFA, 0x0E, 0x01, 0xF5, 
    0xF7, 0x04, 0x01, 0xF3, 0x16, 0xFB, 0x23, 0xF9, 
    0x0D, 0xEA, 0xF3, 0x07, 0x0F, 0x14, 0x03, 0xD9, 
    0x23, 0x12, 0x06, 0xED, 0x34, 0xDC, 0xFB, 0x1A, 
    0x2C, 0xE0, 0x28, 0xDD, 0xE4, 0xFE, 0x1A, 0xCE, 
    0x24, 0xEB, 0xF5, 0x35, 0x21, 0xF2, 0x13, 0x03, 
    0xF7, 0x06, 0x01, 0xF4, 0x23, 0xF5, 0xC4, 0x08, 
    0x15, 0xC5, 0x1D, 0xD6, 0x02, 0x0F, 0x08, 0xCB, 
    0xF7, 0xF1, 0x2B, 0xFD, 0xDE, 0x01, 0xF1, 0x08, 
    0x0F, 0xF4, 0x14, 0x0D, 0xE8, 0x2A, 0x39, 0xF0, 
    0x0C, 0x24, 0x16, 0xF1, 0x03, 0x0D, 0x07, 0x2A, 
    0x0A, 0x06, 0x33, 0x01, 0x04, 0xF1, 0xFF, 0xF1, 
    0x01, 0x12, 0x0E, 0xF4, 0xFE, 0x02, 0xCC, 0x1E, 
    0x09, 0xDE, 0x08, 0xFE, 0xE9, 0xFF, 0x11, 0xE2, 
    0x2A, 0xFB, 0x13, 0x18, 0x1E, 0xFB, 0x1A, 0xED, 
    0xF0, 0x05, 0x1B, 0x18, 0x08, 0xFD, 0xF1, 0xF7, 
    0x1B, 0x12, 0xF4, 0xF5, 0x1B, 0x0B, 0x1B, 0xF2, 
    0x03, 0x13, 0xFA, 0xF4, 0x0A, 0xEC, 0x1C, 0xFB, 
    0x0B, 0x1F, 0x25, 0xF2, 0x35, 0x10, 0x1C, 0x2B, 
    0x14, 0xFC, 0x2E, 0xE3, 0xFA, 0x3A, 0x36, 0x0B, 
    0x20, 0x0C, 0xDF, 0x10, 0x28, 0xD6, 0x1F, 0xEA, 
    0xD4, 0x12, 0x48, 0xDF, 0x2C, 0xDC, 0xE8, 0x17, 
    0x21, 0xEF, 0x46, 0xD7, 0xD3, 0x14, 0x1D, 0xC4, 
    0x3C, 0x03, 0xD4, 0x0F, 0x12, 0xF2, 0x30, 0xEC, 
    0xCD, 0x12, 0x12, 0xEF, 0x1C, 0xD3, 0xCD, 0x20, 
    0xFB, 0xE8, 0x14, 0xD1, 0xDE, 0x1F, 0xEB, 0x2C, 
    0x19, 0x04, 0x0F, 0x16, 0x07, 0x0A, 0x0D, 0x16, 
    0x3A, 0xD8, 0xF9, 0x11, 0x06, 0x0F, 0x4B, 0xFD, 
    0x1A, 0x09, 0x0D, 0x24, 0x06, 0xEC, 0x0F, 0xFE, 
    0x07, 0x00, 0xE5, 0x23, 0x2A, 0xFA, 0xFF, 0xE6, 
    0xDF, 0x13, 0x0D, 0xE4, 0x16, 0xF3, 0xEA, 0x08, 
    0x2E, 0xD3, 0x0B, 0x09, 0x07, 0x08, 0x1D, 0xFD, 
    0xFC, 0xFC, 0xEA, 0x10, 0xFA, 0x0F, 0x1F, 0x23, 
    0xFB, 0x26, 0x27, 0xF0, 0x04, 0xF6, 0x20, 0xFE, 
    0x15, 0x08, 0xFE, 0xFF, 0x13, 0x35, 0x37, 0xF5, 
    0x3F, 0xFC, 0x08, 0x19, 0x30, 0xE9, 0x1F, 0x0D, 
    0xF0, 0x37, 0x1E, 0xE3, 0x4E, 0xD4, 0xF4, 0x1A, 
    0x2C, 0xFF, 0x5B, 0xEE, 0x11, 0x43, 0x38, 0xEE, 
    0x26, 0x05, 0xE7, 0x35, 0x1D, 0xEE, 0x4B, 0xE1, 
    0xD8, 0x42, 0x3B, 0xFF, 0x44, 0xE5, 0xBF, 0x12, 
    0x1C, 0xFF, 0x24, 0xF7, 0xDA, 0x30, 0x17, 0xE0, 
    0x40, 0xDB, 0xD3, 0x36, 0x10, 0xD0, 0x34, 0xED, 
    0xE1, 0x22, 0x2E, 0xFC, 0x06, 0xFB, 0x07, 0x28, 
    0x1D, 0xF8, 0x0A, 0x08, 0x14, 0xE6, 0x01, 0x12, 
    0x11, 0x00, 0x19, 0x25, 0x28, 0xF0, 0x23, 0x1F, 
    0xE7, 0xF4, 0x16, 0xE6, 0x20, 0x23, 0xF4, 0x06, 
    0x0D, 0x04, 0xFA, 0x03, 0xF2, 0x07, 0x00, 0xE1, 
    0x0F, 0xE5, 0xED, 0x15, 0x03, 0xE1, 0x04, 0xF0, 
    0xCE, 0x26, 0x0A, 0x03, 0x34, 0xF1, 0xE0, 0x26, 
    0x2D, 0x0A, 0x12, 0xD7, 0x00, 0x05, 0x0F, 0x03, 
    0x1C, 0xE8, 0xDF, 0x0D, 0xFB, 0xDB, 0x13, 0xDB, 
    0x05, 0xFF, 0x15, 0xF2, 0x28, 0x1B, 0x11, 0x2F, 
    0x0C, 0x1D, 0x23, 0x2D, 0xFB, 0x06, 0x04, 0x09, 
    0x35, 0x25, 0x02, 0x20, 0x1F, 0x26, 0x24, 0x2A, 
    0xE5, 0x3F, 0x2B, 0x07, 0x21, 0xE6, 0xE9, 0x25, 
    0x3F, 0x07, 0x39, 0x00, 0x0E, 0x2C, 0x28, 0x02, 
    0x38, 0x15, 0xFB, 0x39, 0x12, 0x0F, 0x2E, 0x15, 
    0xF5, 0x15, 0x1D, 0xF5, 0x33, 0xF2, 0x12, 0x33, 
    0x01, 0xF8, 0x0F, 0xF2, 0xF6, 0x29, 0x19, 0xFC, 
    0x32, 0x0A, 0xF0, 0x18, 0x2F, 0xC7, 0x10, 0x23, 
    0xE8, 0x17, 0xF3, 0xC3, 0x2F, 0x08, 0xF1, 0x12, 
    0x04, 0xE9, 0x2E, 0xFF, 0x08, 0xF9, 0xFB, 0xC5, 
    0x0D, 0x21, 0xE8, 0x30, 0x2E, 0xE1, 0x37, 0xFE, 
    0xF8, 0x2A, 0x37, 0xE2, 0x2B, 0x01, 0xD6, 0x30, 
    0x2E, 0xE0, 0x19, 0x21, 0xEC, 0x0B, 0xFC, 0xDB, 
    0x14, 0x1F, 0x09, 0xFF, 0xFA, 0x07, 0x1A, 0x05, 
    0xFC, 0x1E, 0xF4, 0x1A, 0xF3, 0xE2, 0xE6, 0x21, 
    0x27, 0x07, 0x00, 0x0D, 0xEC, 0x19, 0xFB, 0xEE, 
    0x2D, 0xE1, 0x11, 0x05, 0x17, 0x23, 0xFF, 0x0B, 
    0x27, 0xFD, 0x16, 0x2F, 0x2B, 0x1D, 0xF6, 0x00, 
    0x1C, 0x06, 0x23, 0x0F, 0xF7, 0x1C, 0x23, 0x03, 
    0xF4, 0x2E, 0x0D, 0xFD, 0x06, 0x06, 0xFA, 0x1F, 
    0x0A, 0x2B, 0x14, 0x06, 0x1E, 0x0B, 0x13, 0x0C, 
    0xF5, 0x27, 0xFB, 0x21, 0x32, 0x19, 0x0B, 0x27, 
    0x07, 0x39, 0x0D, 0xFE, 0x07, 0x2B, 0x0F, 0x0B, 
    0x0E, 0x02, 0xD5, 0x14, 0x15, 0x13, 0x15, 0xEA, 
    0xEF, 0xF1, 0x01, 0x11, 0xD7, 0x21, 0xFB, 0xF5, 
    0x1B, 0xDF, 0xE7, 0x28, 0x01, 0xE3, 0x05, 0x0C, 
    0xC8, 0xF4, 0xF2, 0xEC, 0xF3, 0xD1, 0x05, 0xFC, 
    0x28, 0xD4, 0x45, 0xD0, 0xDC, 0x20, 0x2C, 0x01, 
    0x38, 0x03, 0xE0, 0x32, 0x08, 0xE9, 0x2C, 0x0D, 
    0xFA, 0x3F, 0x00, 0xF1, 0x21, 0xF6, 0x06, 0x29, 
    0x28, 0xE1, 0x2A, 0xDA, 0x04, 0x0D, 0xF7, 0x13, 
    0x03, 0xE5, 0x07, 0x07, 0x22, 0x0D, 0x1C, 0x14, 
    0x19, 0x07, 0x02, 0x05, 0x24, 0xFD, 0x12, 0x01, 
    0x09, 0xE3, 0x1A, 0xF6, 0xE9, 0x15, 0x21, 0x1A, 
    0x0C, 0xDA, 0x08, 0xFB, 0x17, 0xEA, 0x01, 0xDB, 
    0xFC, 0xED, 0xF7, 0xFC, 0x14, 0xF5, 0x04, 0xE8, 
    0x1F, 0x18, 0x22, 0x19, 0x23, 0x20, 0x1B, 0xF4, 
    0x00, 0x1A, 0xFD, 0x02, 0xF8, 0x00, 0x10, 0x17, 
    0xFC, 0x1F, 0xF1, 0x1B, 0x06, 0x14, 0x11, 0xF1, 
    0xE3, 0xFA, 0xDD, 0x19, 0x18, 0x01, 0xDA, 0x1D, 
    0xD2, 0x2E, 0x20, 0x0A, 0xED, 0xF2, 0xFA, 0xFA, 
    0xD7, 0xEF, 0xFD, 0xEB, 0xED, 0xF8, 0x06, 0x1A, 
    0xF1, 0xEF, 0x25, 0x3A, 0xDF, 0x09, 0xEC, 0xE1, 
    0xFF, 0x0F, 0x0B, 0x17, 0x23, 0xE7, 0x2E, 0xD7, 
    0xF3, 0x10, 0x04, 0xE2, 0x33, 0xE7, 0x08, 0x2F, 
    0x14, 0xFA, 0x3D, 0x00, 0xD9, 0x48, 0x22, 0xF3, 
    0x0B, 0x0E, 0xFF, 0x1A, 0x01, 0xE6, 0x36, 0x0F, 
    0xF7, 0x0C, 0x0F, 0x04, 0x23, 0xD4, 0xF3, 0x35, 
    0x0D, 0x09, 0x0A, 0x00, 0xEE, 0x25, 0xF6, 0x01, 
    0x0E, 0xC6, 0xFE, 0x2F, 0x1F, 0x21, 0x26, 0xF1, 
    0xE6, 0x1F, 0xFF, 0xF3, 0x33, 0xF4, 0x17, 0x38, 
    0x07, 0x1F, 0x37, 0xCA, 0x0B, 0x1E, 0xF7, 0xF5, 
    0x14, 0xD3, 0x10, 0x08, 0x17, 0x0E, 0xF5, 0xBF, 
    0xFC, 0x06, 0xEF, 0x07, 0x16, 0xBE, 0x0B, 0x21, 
    0xF1, 0xE4, 0xFA, 0xDE, 0xEC, 0x17, 0xF1, 0xF2, 
    0x03, 0xC3, 0x0E, 0xF1, 0xF1, 0x0E, 0xEF, 0xF5, 
    0xEF, 0xEE, 0xE9, 0x20, 0x13, 0x0A, 0x0D, 0x05, 
    0xD7, 0xE4, 0xC2, 0xD8, 0x05, 0xD9, 0xE6, 0xE9, 
    0xF4, 0xE1, 0x05, 0xE7, 0xE6, 0xF8, 0x10, 0xFE, 
    0xF6, 0x03, 0xE4, 0xE6, 0xF5, 0x1F, 0xFA, 0xF5, 
    0xE5, 0x05, 0x0B, 0xF3, 0xFC, 0x11, 0x1D, 0xF9, 
    0x10, 0xE0, 0xDC, 0xFA, 0x21, 0xF5, 0x32, 0xBB, 
    0xC8, 0x31, 0x07, 0xD3, 0xFE, 0x02, 0xDA, 0x43, 
    0x07, 0x08, 0x04, 0x01, 0xE8, 0x35, 0x04, 0xF1, 
    0xF7, 0x02, 0x0D, 0x00, 0x1D, 0x17, 0x0B, 0x20, 
    0xFD, 0x1D, 0x17, 0x02, 0xED, 0xE2, 0x0B, 0x21, 
    0x23, 0x03, 0xFB, 0x0E, 0x13, 0xF9, 0x11, 0x12, 
    0x0D, 0xF6, 0x2A, 0x0C, 0x26, 0x1A, 0x1D, 0x0A, 
    0x2A, 0x2B, 0xF2, 0xFA, 0xF7, 0x1D, 0x02, 0x05, 
    0xFA, 0x24, 0x09, 0x19, 0xF2, 0x25, 0x19, 0x06, 
    0x0F, 0xD9, 0x03, 0xF6, 0x00, 0xF9, 0x1A, 0xE1, 
    0x12, 0x06, 0x0C, 0x06, 0xF6, 0xFB, 0xF5, 0xFA, 
    0x12, 0x22, 0x10, 0x08, 0x1E, 0xFD, 0xFB, 0x11, 
    0x1B, 0x0B, 0x20, 0x06, 0xB1, 0x16, 0xEB, 0x1A, 
    0x09, 0xCE, 0xF6, 0xFB, 0xF1, 0x01, 0xE8, 0xF9, 
    0x07, 0xE2, 0x18, 0xF6, 0xF1, 0xE3, 0xEB, 0x03, 
    0x22, 0x16, 0x13, 0x0B, 0x1F, 0x0E, 0x0A, 0x0A, 
    0xE0, 0x01, 0x04, 0x00, 0xF1, 0x0A, 0x0A, 0x07, 
    0xF3, 0xE0, 0xF0, 0xD6, 0xDE, 0x21, 0x29, 0xE4, 
    0x1A, 0xDE, 0xF6, 0x1E, 0xFE, 0x01, 0x0F, 0xED, 
    0xED, 0x41, 0xFC, 0xFB, 0x28, 0xEB, 0xF4, 0x1F, 
    0x00, 0xEB, 0x0E, 0x0A, 0x17, 0xF9, 0xEE, 0xF7, 
    0xFB, 0xF4, 0x26, 0x14, 0x15, 0x03, 0x01, 0xFB, 
    0x05, 0xFB, 0x0D, 0x13, 0x03, 0x09, 0x06, 0xEC, 
    0x21, 0x06, 0x23, 0x16, 0x30, 0xFC, 0x03, 0x14, 
    0x01, 0x33, 0x0D, 0x12, 0xEE, 0x1A, 0xE9, 0x0D, 
    0x07, 0x11, 0x03, 0x10, 0xF3, 0x31, 0x18, 0x11, 
    0xFC, 0x13, 0x20, 0x0E, 0x12, 0xF8, 0xF8, 0x1C, 
    0xF8, 0x0A, 0x06, 0x0E, 0x07, 0x15, 0xF0, 0xF7, 
    0xF5, 0x1D, 0x06, 0x17, 0x21, 0x2A, 0xF7, 0xF2, 
    0xB6, 0xFF, 0xE6, 0xF0, 0x1A, 0xB0, 0xDA, 0x1B, 
    0xF1, 0xF1, 0x11, 0xE4, 0xF2, 0x10, 0xF2, 0xDE, 
    0xFF, 0x0D, 0x1B, 0x01, 0xF8, 0xE2, 0x0B, 0x1C, 
    0x1D, 0x07, 0x06, 0xE3, 0x08, 0x2B, 0x13, 0x08, 
    0xEB, 0xE8, 0xDA, 0x28, 0x05, 0xE4, 0xEF, 0xDD, 
    0xF9, 0x1D, 0x10, 0xE6, 0xFF, 0xDD, 0xF4, 0x1A, 
    0xFA, 0xD9, 0x1A, 0xCE, 0xF6, 0x16, 0x1C, 0xDC, 
    0x12, 0xF3, 0xEE, 0x0B, 0xF0, 0x0D, 0x10, 0xF3, 
    0xF9, 0x11, 0x02, 0x06, 0xE5, 0xF2, 0x12, 0x1F, 
    0x05, 0x21, 0xE5, 0xF1, 0x0D, 0xF3, 0x16, 0x00, 
    0x12, 0xD3, 0x1E, 0x14, 0x23, 0x04, 0xF7, 0x09, 
    0xFB, 0x04, 0x15, 0x06, 0xED, 0xF3, 0xF0, 0x1F, 
    0xE8, 0xFE, 0xE4, 0x02, 0xFB, 0x10, 0x04, 0x03, 
    0xEC, 0x08, 0xF0, 0xED, 0xF5, 0xF1, 0x0B, 0x28, 
    0x00, 0xEB, 0x08, 0xFD, 0xF9, 0x0B, 0xEB, 0xEF, 
    0xF7, 0x09, 0x1B, 0x17, 0xE9, 0x16, 0x1C, 0x1C, 
    0xF7, 0x0E, 0x21, 0x03, 0xB7, 0x42, 0xCE, 0x09, 
    0x39, 0x99, 0xBB, 0x09, 0xD8, 0xEC, 0x13, 0xC2, 
    0xE0, 0xF5, 0xD7, 0xEB, 0xE9, 0xD4, 0xD4, 0xEE, 
    0xF2, 0xE0, 0xFA, 0xF5, 0x02, 0x22, 0xF9, 0x04, 
    0x0B, 0xF2, 0xF1, 0x0E, 0xDA, 0xFB, 0xF1, 0x15, 
    0xFF, 0x28, 0xF1, 0xCE, 0xEC, 0xEC, 0xF3, 0xFA, 
    0xDC, 0xEB, 0x05, 0x20, 0x0B, 0x2E, 0xE9, 0xCB, 
    0xEF, 0xF3, 0x09, 0x05, 0xE4, 0xC3, 0x08, 0x16, 
    0xF9, 0x34, 0x04, 0x0A, 0x20, 0x11, 0xE8, 0x2F, 
    0xF7, 0xEE, 0x09, 0x0B, 0xF0, 0x09, 0xEB, 0x28, 
    0x24, 0xD9, 0xDD, 0x19, 0xBF, 0x19, 0x2B, 0x12, 
    0xE7, 0x24, 0xBB, 0x0A, 0x00, 0xFE, 0x09, 0x1C, 
    0xED, 0x09, 0x19, 0x1C, 0x14, 0x1D, 0x11, 0x00, 
    0xF0, 0x03, 0xEA, 0x13, 0xEA, 0x23, 0xFB, 0xEC, 
    0x1C, 0x0C, 0xFA, 0x0D, 0xE4, 0x00, 0x07, 0x12, 
    0xF5, 0xDE, 0xFB, 0xFF, 0xEB, 0xF4, 0xEA, 0xBC, 
    0xFD, 0xE7, 0xE0, 0xFC, 0x12, 0xE4, 0x00, 0x0C, 
    0x0E, 0xFA, 0x09, 0x0F, 0x05, 0x1D, 0x12, 0xF2, 
    0x1E, 0x11, 0xF1, 0x18, 0x1A, 0x24, 0x0F, 0xED, 
    0x19, 0x1B, 0xFF, 0x37, 0x0F, 0xF9, 0x19, 0x05, 
    0x20, 0x43, 0xFE, 0x11, 0x26, 0xF6, 0x20, 0x2D, 
    0xF4, 0x16, 0x3F, 0x24, 0xEA, 0x22, 0x02, 0xEC, 
    0x09, 0x27, 0x0A, 0x30, 0x25, 0x06, 0xF3, 0xF9, 
    0x1D, 0x29, 0xEF, 0xFE, 0xEB, 0xFA, 0x19, 0x16, 
    0xED, 0x16, 0x07, 0x26, 0x00, 0x1E, 0xFA, 0x0F, 
    0xF4, 0xF3, 0x0F, 0x34, 0xFD, 0xFA, 0xFE, 0xF0, 
    0x12, 0xF7, 0x04, 0x22, 0x0F, 0x16, 0x0E, 0x0B, 
    0x00, 0x0F, 0x1C, 0xFD, 0x12, 0xF6, 0xEA, 0x19, 
    0x08, 0xED, 0x1D, 0x24, 0x02, 0x05, 0x00, 0x14, 
    0x06, 0x15, 0xF5, 0x0D, 0xEB, 0xEF, 0x0C, 0xFA, 
    0xF4, 0xFB, 0x13, 0xF2, 0x0A, 0x0B, 0xF2, 0x09, 
    0x15, 0x05, 0x0B, 0xF1, 0x12, 0xE6, 0x11, 0x0C, 
    0xF7, 0x06, 0x27, 0x09, 0x02, 0x22, 0xFE, 0xE3, 
    0x21, 0xDC, 0xE9, 0xF0, 0x1A, 0x00, 0xFB, 0xEB, 
    0x0A, 0xFB, 0x14, 0x01, 0x0F, 0x14, 0xF5, 0xFE, 
    0x1A, 0x0D, 0x15, 0xFB, 0xFF, 0x16, 0x06, 0x0C, 
    0xFA, 0x08, 0x0C, 0x0E, 0x01, 0x32, 0x20, 0x16, 
    0x30, 0x12, 0xFB, 0x44, 0x10, 0x0D, 0x2C, 0xF7, 
    0xF3, 0x3B, 0x0B, 0x14, 0x20, 0x05, 0xFF, 0x39, 
    0xF2, 0xF5, 0x2A, 0x23, 0xF1, 0x43, 0x16, 0xFB, 
    0x34, 0xFB, 0x11, 0x1B, 0x0E, 0xF5, 0x04, 0xEE, 
    0x15, 0x05, 0x1C, 0xF7, 0x1B, 0xF9, 0xF1, 0x0F, 
    0xF8, 0x1A, 0x2E, 0x1F, 0x19, 0x24, 0xFB, 0x04, 
    0xFB, 0x24, 0x19, 0x2B, 0x06, 0x10, 0x10, 0x04, 
    0xFF, 0x2F, 0x02, 0xFE, 0x14, 0xEC, 0x08, 0x30, 
    0xE6, 0xF5, 0x0B, 0x1D, 0xFF, 0x2B, 0x1D, 0xF4, 
    0xF1, 0xF6, 0x03, 0x1F, 0xEE, 0xED, 0xED, 0x1E, 
    0x0F, 0x0F, 0xF4, 0x1A, 0xEE, 0x04, 0xFE, 0xF9, 
    0x0B, 0x16, 0xF9, 0x21, 0xF5, 0x14, 0xF6, 0xE8, 
    0x11, 0x04, 0xF8, 0xCD, 0x0A, 0xFC, 0x15, 0x1B, 
    0x1A, 0x07, 0x15, 0xFF, 0xFD, 0xF9, 0x12, 0xFB, 
    0xF6, 0x0B, 0xEE, 0xEF, 0x0E, 0x1B, 0x20, 0xFF, 
    0x09, 0x06, 0x09, 0x3E, 0x06, 0x2C, 0x3F, 0x0B, 
    0xF3, 0x48, 0xEA, 0x04, 0x2C, 0x04, 0xE3, 0x40, 
    0x03, 0x0C, 0x3E, 0xF0, 0xE0, 0x1E, 0xFC, 0x0D, 
    0x3F, 0x19, 0xF1, 0x21, 0x08, 0x1C, 0x3C, 0xED, 
    0xEB, 0xEF, 0xE9, 0x22, 0x41, 0xEC, 0xFA, 0x08, 
    0x04, 0x06, 0x0B, 0xFA, 0x21, 0x00, 0x1B, 0x29, 
    0xDD, 0xFE, 0x01, 0xFF, 0xFF, 0xF5, 0x06, 0x13, 
    0x1B, 0x00, 0x0F, 0xF5, 0xD5, 0xFC, 0x01, 0x05, 
    0x0E, 0x05, 0xEE, 0x19, 0xEB, 0xFB, 0xF3, 0x16, 
    0x04, 0x22, 0x18, 0xEE, 0x1D, 0x02, 0xF9, 0x22, 
    0x02, 0x00, 0xF2, 0xFD, 0xE6, 0x21, 0x0E, 0xF4, 
    0x13, 0xF1, 0x39, 0x10, 0xF4, 0x14, 0xF5, 0x07, 
    0x16, 0x02, 0xF8, 0x2A, 0x1D, 0xE9, 0x08, 0xFD, 
    0x1B, 0x0A, 0x1D, 0xEF, 0x03, 0xFD, 0xEF, 0xCC, 
    0xEF, 0xFD, 0xEC, 0x18, 0x09, 0xEA, 0x0C, 0x11, 
    0x08, 0xF6, 0x16, 0x16, 0x00, 0xFD, 0xE8, 0x1F, 
    0x14, 0x33, 0xEA, 0x0F, 0x3D, 0xF7, 0xE4, 0x1A, 
    0x09, 0x00, 0x14, 0xFE, 0xF8, 0x21, 0x14, 0x2B, 
    0x3E, 0x05, 0xF9, 0x2F, 0x05, 0x19, 0x0D, 0x06, 
    0xEA, 0x1E, 0x10, 0x10, 0x24, 0x12, 0x15, 0xFF, 
    0x14, 0x12, 0x1B, 0xF9, 0xFD, 0xEF, 0x09, 0x03, 
    0x08, 0x10, 0x24, 0x0C, 0x15, 0xFF, 0xEA, 0x06, 
    0xE9, 0x17, 0xEC, 0x0E, 0xF5, 0x0D, 0x0B, 0xF4, 
    0xE9, 0x2C, 0xEC, 0x1E, 0xE6, 0xFD, 0x05, 0x1E, 
    0x08, 0x06, 0x0D, 0x04, 0x00, 0x1A, 0xE0, 0x07, 
    0xE0, 0x02, 0xE2, 0x02, 0x0C, 0x13, 0xFE, 0x25, 
    0x0C, 0x03, 0xFB, 0x1A, 0x04, 0x02, 0xFE, 0xFA, 
    0x0E, 0x0A, 0x07, 0x11, 0xF1, 0xF7, 0x05, 0xFE, 
    0xE7, 0x4A, 0xDD, 0xFE, 0x39, 0x08, 0x0F, 0x39, 
    0xE2, 0xFF, 0x45, 0xDD, 0xFA, 0x1A, 0xF7, 0x21, 
    0x12, 0x0C, 0xEB, 0xDA, 0x00, 0x22, 0xF2, 0xEE, 
    0xFF, 0x24, 0x17, 0x05, 0xFC, 0xFF, 0x12, 0x25, 
    0xEE, 0x01, 0x17, 0xF3, 0xE9, 0x19, 0x11, 0xE7, 
    0x13, 0x04, 0xFF, 0x0D, 0xDF, 0xEF, 0x33, 0x00, 
    0x02, 0x38, 0x15, 0x12, 0x2E, 0xE1, 0xEA, 0x25, 
    0xF8, 0x41, 0x1B, 0xDD, 0xEC, 0x1D, 0xF5, 0x25, 
    0x22, 0xDB, 0xEA, 0x1F, 0xFA, 0x30, 0x16, 0xFD, 
    0xEA, 0x06, 0xF5, 0x27, 0x06, 0xF9, 0x1E, 0x0F, 
    0x0F, 0x3A, 0x22, 0xFF, 0x06, 0x25, 0xD8, 0xFE, 
    0x2C, 0xE8, 0x03, 0x10, 0xD6, 0xFF, 0x04, 0x0F, 
    0xD3, 0x2E, 0xD5, 0x07, 0x24, 0xF9, 0xED, 0x26, 
    0xF1, 0x23, 0x0C, 0xFF, 0xE2, 0x36, 0xF5, 0xF8, 
    0x10, 0xDF, 0xF0, 0x42, 0xD5, 0x17, 0x35, 0xCE, 
    0xC6, 0x0A, 0xCC, 0x1A, 0x23, 0xF4, 0xCD, 0x32, 
    0xD4, 0x13, 0x30, 0xFA, 0xEE, 0x4B, 0xC8, 0x01, 
    0x33, 0xFE, 0xE8, 0x6E, 0xFD, 0x1B, 0x40, 0xE9, 
    0xE1, 0x4E, 0x03, 0x1B, 0x4F, 0xFF, 0xE7, 0xFD, 
    0xE4, 0x0D, 0x49, 0x04, 0xE7, 0x4A, 0xF7, 0x11, 
    0x4A, 0xFD, 0xF1, 0x27, 0xF2, 0xFE, 0x0D, 0x12, 
    0xF8, 0x1C, 0xF8, 0x16, 0x34, 0xEF, 0x0B, 0x3B, 
    0xF2, 0xF9, 0x1D, 0xF3, 0x03, 0x22, 0xE3, 0x01, 
    0x27, 0xF1, 0xE0, 0x0C, 0xE1, 0x17, 0x14, 0xFB, 
    0x01, 0x0D, 0xE1, 0x31, 0x0F, 0xFA, 0x18, 0x31, 
    0x0D, 0x30, 0x34, 0xF3, 0x11, 0x0C, 0x28, 0x13, 
    0x20, 0x02, 0x00, 0x30, 0x1B, 0x4F, 0x24, 0x11, 
    0xDD, 0x2A, 0xFE, 0x50, 0x1E, 0x0D, 0xF5, 0x39, 
    0x0B, 0x07, 0x0C, 0xE5, 0xE6, 0xF6, 0xFF, 0xFE, 
    0x33, 0xD4, 0xEE, 0xF6, 0xF3, 0xF2, 0x21, 0xEF, 
    0xF0, 0xF1, 0xEA, 0x26, 0x11, 0xEA, 0xF2, 0x22, 
    0xD0, 0x22, 0x4C, 0xDA, 0xFE, 0x11, 0xED, 0x1E, 
    0x1D, 0xC5, 0xD5, 0x19, 0xD0, 0xF3, 0x2D, 0xDF, 
    0xE7, 0xF4, 0xD9, 0x11, 0x12, 0xD3, 0xC3, 0x12, 
    0xBF, 0x33, 0x41, 0xDB, 0xD1, 0x42, 0xD9, 0x3F, 
    0x67, 0xC2, 0xEB, 0x39, 0xF0, 0x4B, 0x57, 0xCE, 
    0x01, 0x20, 0xE3, 0x1A, 0x2C, 0xEE, 0x05, 0x46, 
    0x03, 0x03, 0x41, 0x13, 0xEB, 0x1F, 0x01, 0x0E, 
    0x2B, 0xEF, 0x04, 0x30, 0xEF, 0x18, 0x49, 0xED, 
    0x14, 0x2C, 0xE8, 0x28, 0x1E, 0x0D, 0xE3, 0xF7, 
    0x17, 0x16, 0x19, 0xEB, 0x0F, 0x10, 0xF9, 0x22, 
    0x16, 0xE9, 0x03, 0xFB, 0x30, 0x23, 0x35, 0x0D, 
    0x13, 0x11, 0x48, 0x04, 0x02, 0x06, 0x37, 0xFE, 
    0x39, 0x2D, 0x10, 0x34, 0x00, 0x23, 0x39, 0x2E, 
    0xFA, 0x24, 0x11, 0xFA, 0x11, 0x0A, 0x14, 0xF3, 
    0xE3, 0x0C, 0x07, 0x1B, 0xF8, 0x11, 0x0F, 0xE7, 
    0x1A, 0x13, 0xFC, 0x03, 0xEA, 0x0A, 0x01, 0x24, 
    0xF6, 0xD8, 0x00, 0x07, 0xF0, 0x2E, 0x08, 0xFB, 
    0xFD, 0xF3, 0xEE, 0x15, 0xF9, 0xDE, 0xDB, 0x0D, 
    0xF4, 0x05, 0xE7, 0x02, 0xEA, 0x07, 0xD4, 0xE5, 
    0xF5, 0xED, 0xDA, 0xF6, 0xF7, 0xCC, 0x0C, 0xCC, 
    0xF7, 0x0F, 0xE8, 0x1A, 0x42, 0xF9, 0xEC, 0x0B, 
    0xEC, 0xFE, 0x2E, 0xEF, 0x0C, 0x0E, 0x14, 0xF6, 
    0x47, 0xF9, 0x08, 0x14, 0xE6, 0xE8, 0x4D, 0xE2, 
    0x0A, 0x2F, 0x17, 0xF1, 0x23, 0x03, 0x02, 0x1A, 
    0xF8, 0x1D, 0x1B, 0xF0, 0xEA, 0x40, 0xDA, 0x12, 
    0x2A, 0xF4, 0xFA, 0x0C, 0xE7, 0x03, 0x17, 0x01, 
    0xD5, 0x27, 0xF8, 0x1D, 0x32, 0x05, 0x10, 0x0C, 
    0xF9, 0xFE, 0x15, 0xDC, 0xE6, 0x05, 0xFD, 0x06, 
    0x13, 0xF3, 0x08, 0x0C, 0x2D, 0x30, 0xF1, 0x16, 
    0x2A, 0x0C, 0x41, 0x27, 0xFE, 0x1B, 0x0F, 0x08, 
    0x21, 0x40, 0x12, 0x23, 0x29, 0xE9, 0x37, 0x0A, 
    0xF2, 0x15, 0x01, 0x0D, 0x20, 0x25, 0xF0, 0xFB, 
    0x07, 0xF4, 0x31, 0x2B, 0xF9, 0xE7, 0x18, 0xDC, 
    0xEC, 0x24, 0xF8, 0xFA, 0x09, 0x0E, 0xFA, 0x1F, 
    0xFC, 0xED, 0xF8, 0x1A, 0xF0, 0x2B, 0xE5, 0x0A, 
    0xFD, 0xF2, 0x15, 0xF0, 0x04, 0xD8, 0xFC, 0xF1, 
    0x0A, 0x09, 0x0B, 0xEB, 0x03, 0x1D, 0x03, 0x0E, 
    0xFC, 0xEE, 0x0C, 0x02, 0x26, 0x2A, 0xF4, 0xF6, 
    0x02, 0x22, 0xFD, 0xF3, 0x30, 0xF2, 0x18, 0x06, 
    0x10, 0xF0, 0x28, 0x02, 0xF5, 0x2C, 0x0B, 0xDD, 
    0x32, 0x03, 0xF4, 0x06, 0x05, 0x24, 0x3D, 0xE5, 
    0xE9, 0x40, 0x05, 0x29, 0x38, 0xE4, 0x09, 0x31, 
    0xFC, 0x35, 0x1C, 0xD4, 0xDC, 0x1F, 0xDB, 0xFF, 
    0x29, 0xDC, 0xF4, 0x2C, 0x04, 0x17, 0x0E, 0xDC, 
    0x05, 0x1C, 0x11, 0x08, 0x16, 0x07, 0x1D, 0x0C, 
    0x06, 0xFA, 0xF7, 0x0C, 0x40, 0x04, 0x26, 0x30, 
    0x10, 0x3E, 0x3A, 0xE3, 0x50, 0x48, 0x10, 0x1C, 
    0x0B, 0xFE, 0x4C, 0x22, 0xF4, 0x21, 0x03, 0x03, 
    0x29, 0x2D, 0xFF, 0x35, 0x20, 0xF6, 0x32, 0x30, 
    0xF7, 0x11, 0xFB, 0x08, 0xFF, 0x28, 0x00, 0x1E, 
    0xFF, 0xFA, 0x1D, 0x2B, 0xFF, 0x0F, 0x03, 0x06, 
    0x0B, 0x35, 0xF1, 0x1E, 0x18, 0xF1, 0x2B, 0x1A, 
    0xEB, 0x0E, 0xFF, 0xF9, 0x31, 0x30, 0xFB, 0x33, 
    0xFF, 0xF2, 0x43, 0xF4, 0x1C, 0x2E, 0x01, 0x20, 
    0x15, 0x13, 0xFD, 0x1A, 0x23, 0x17, 0x27, 0xFE, 
    0x47, 0x0C, 0x05, 0x30, 0x0B, 0x06, 0x19, 0x04, 
    0x06, 0x3A, 0x10, 0xF9, 0x2F, 0xEE, 0x11, 0x17, 
    0x02, 0x27, 0x47, 0xE1, 0xDC, 0x14, 0x00, 0x32, 
    0x2F, 0xE5, 0xEA, 0x12, 0xED, 0x10, 0x12, 0xFB, 
    0xE1, 0x13, 0x0A, 0x5E, 0x31, 0xE8, 0xF7, 0x05, 
    0xEB, 0x0B, 0x27, 0xD7, 0xF9, 0x07, 0x0A, 0x22, 
    0x04, 0xFE, 0x0E, 0xEE, 0x2B, 0xFF, 0xE9, 0x07, 
    0x4D, 0xF4, 0x3D, 0x26, 0xE2, 0x2E, 0x18, 0x11, 
    0x53, 0x12, 0xF1, 0x39, 0x2F, 0xF6, 0x50, 0x21, 
    0xF2, 0x30, 0x07, 0xE3, 0x16, 0x1D, 0x02, 0x23, 
    0x16, 0x16, 0xF1, 0x2C, 0xE8, 0x15, 0x02, 0x21, 
    0x12, 0x2B, 0xE3, 0x0C, 0x1F, 0x12, 0xFD, 0x1C, 
    0x05, 0x0E, 0xEE, 0x0B, 0x09, 0x06, 0xFD, 0x0F, 
    0xF6, 0x2B, 0x01, 0xFA, 0x0B, 0x0E, 0x20, 0xF9, 
    0xEE, 0xFC, 0xFC, 0xFF, 0x01, 0x17, 0xF3, 0x08, 
    0x19, 0x04, 0x08, 0x19, 0x20, 0x0D, 0x04, 0x1A, 
    0x15, 0x1E, 0x3F, 0x2E, 0x29, 0x2D, 0xFB, 0x0E, 
    0x27, 0x14, 0x24, 0xF4, 0xFE, 0x1A, 0x02, 0x1F, 
    0x35, 0x02, 0x1C, 0x15, 0x03, 0x0A, 0x0F, 0xFE, 
    0xE6, 0x19, 0xFA, 0x07, 0x0D, 0xF2, 0x1E, 0x0E, 
    0xFF, 0x24, 0x00, 0xF0, 0x18, 0x1C, 0xFF, 0x3A, 
    0x29, 0xEA, 0xFF, 0x2E, 0x29, 0x3B, 0xFD, 0xE8, 
    0xF6, 0xF3, 0x20, 0xFE, 0x24, 0x02, 0xF8, 0x02, 
    0x0C, 0x1C, 0xE5, 0xF0, 0x3E, 0x0A, 0x57, 0x0E, 
    0xF8, 0x22, 0x1C, 0x0A, 0x35, 0x33, 0x0A, 0x2D, 
    0x13, 0x09, 0x2E, 0x1D, 0x01, 0x44, 0x1A, 0xFB, 
    0x05, 0x2B, 0xFA, 0x41, 0x09, 0xEE, 0x1B, 0x2F, 
    0x03, 0x21, 0x00, 0x14, 0x22, 0x25, 0x23, 0xEF, 
    0xFB, 0xF9, 0xF9, 0x45, 0x24, 0x17, 0xF2, 0x28, 
    0xFB, 0x2C, 0x28, 0xF8, 0xEF, 0x09, 0xFC, 0x26, 
    0x25, 0x11, 0x25, 0x0C, 0x1E, 0x2D, 0x09, 0x09, 
    0xFF, 0x16, 0xEC, 0x0D, 0xF7, 0xF2, 0x1A, 0x01, 
    0x1A, 0x2A, 0x1B, 0xF6, 0x21, 0x1A, 0x45, 0x1A, 
    0xF6, 0x2D, 0x25, 0x1F, 0x48, 0x21, 0x2A, 0x35, 
    0x1C, 0x1A, 0x13, 0xEA, 0x13, 0xF3, 0x1B, 0x1B, 
    0x23, 0x0A, 0xFE, 0xF9, 0x1C, 0x01, 0xF6, 0x14, 
    0x1B, 0xFD, 0x21, 0x16, 0x21, 0xFB, 0x1B, 0x0E, 
    0x14, 0x12, 0x0D, 0xFA, 0xFF, 0x22, 0x1A, 0xF0, 
    0x37, 0x0C, 0xFF, 0x16, 0xF2, 0xE7, 0x2D, 0x07, 
    0x1B, 0x02, 0x0E, 0x0C, 0x18, 0x17, 0xE6, 0x05, 
    0x03, 0xDB, 0x1E, 0xEC, 0x1B, 0xFC, 0x43, 0x0D, 
    0x34, 0x08, 0x12, 0x3F, 0x14, 0x20, 0x3B, 0x2C, 
    0xF0, 0x21, 0x28, 0xF1, 0x2C, 0x47, 0x00, 0x11, 
    0x00, 0x1D, 0x15, 0x06, 0x21, 0x18, 0x17, 0x02, 
    0x19, 0x26, 0x16, 0x0C, 0xE9, 0x02, 0x21, 0x24, 
    0x18, 0x13, 0x20, 0x23, 0x24, 0x3A, 0x0A, 0x1D, 
    0xFF, 0xFA, 0x1B, 0x0F, 0x20, 0x02, 0xEE, 0x13, 
    0x10, 0x10, 0x1F, 0x17, 0x20, 0x06, 0x1D, 0x0D, 
    0x00, 0xF0, 0x0D, 0x16, 0x11, 0x21, 0x08, 0x0B, 
    0x27, 0xFA, 0x36, 0x34, 0x1B, 0x5B, 0x51, 0xE8, 
    0x4B, 0x19, 0x13, 0x20, 0x17, 0xFB, 0x0B, 0xFE, 
    0xF3, 0x3C, 0x2E, 0xF8, 0x23, 0xF3, 0x21, 0xFB, 
    0xFC, 0x07, 0x1A, 0x01, 0xF7, 0x14, 0x06, 0xD2, 
    0x2E, 0xFF, 0x00, 0x1B, 0x01, 0xF5, 0x2D, 0x0C, 
    0xD9, 0x09, 0x2F, 0xFE, 0x19, 0x16, 0xE3, 0x1A, 
    0x28, 0xFC, 0x47, 0x03, 0xF8, 0x24, 0x0B, 0xF1, 
    0x15, 0x0C, 0xE9, 0xFF, 0x24, 0xE0, 0x40, 0xF4, 
    0xDE, 0x22, 0x1C, 0xCC, 0x3E, 0x14, 0xE8, 0x28, 
    0x30, 0xE7, 0x2F, 0x05, 0xF0, 0x15, 0x33, 0x05, 
    0x41, 0x1F, 0xE2, 0x33, 0x2E, 0x01, 0x3B, 0xF9, 
    0x13, 0x38, 0x09, 0x16, 0x1A, 0x2E, 0xF7, 0x13, 
    0x03, 0x2C, 0xF6, 0x03, 0xFA, 0xE8, 0x19, 0x20, 
    0xEB, 0x2F, 0x2A, 0xE8, 0x02, 0x0D, 0x0E, 0x40, 
    0x00, 0xF3, 0x09, 0x17, 0x1B, 0x27, 0x21, 0x01, 
    0xF5, 0x23, 0x0A, 0x49, 0x1F, 0x0E, 0x03, 0x1E, 
    0x11, 0x70, 0x0F, 0xEA, 0xD2, 0xFE, 0xFF, 0xFF, 
    0x04, 0x00, 0x00, 0x00, 0x18, 0x00, 0x00, 0x00, 
    0x78, 0x58, 0xAF, 0x3D, 0xD3, 0x40, 0x45, 0x3E, 
    0x9D, 0xF3, 0x13, 0x3E, 0xC6, 0x24, 0x37, 0x3D, 
    0x6C, 0xAD, 0x35, 0x3E, 0x55, 0x2D, 0xBD, 0x3D, 
    0x00, 0x00, 0x00, 0x00, 0x00, 0x00, 0x00, 0x00, 
    0x00, 0x00, 0x00, 0x00, 0x02, 0xFF, 0xFF, 0xFF, 
    0x04, 0x00, 0x00, 0x00, 0x14, 0x00, 0x00, 0x00, 
    0x05, 0xC8, 0xC4, 0xBB, 0x9A, 0x8B, 0x98, 0x3B, 
    0xB2, 0x5B, 0x10, 0x3C, 0x7F, 0x3D, 0xEE, 0x3B, 
    0xBD, 0x46, 0x60, 0x3C, 0x22, 0xFF, 0xFF, 0xFF, 
    0x04, 0x00, 0x00, 0x00, 0x10, 0x00, 0x00, 0x00, 
    0xB2, 0x6F, 0x85, 0xBE, 0xD4, 0x60, 0xEA, 0xBD, 
    0x3D, 0xD8, 0x37, 0x3D, 0xC3, 0x05, 0x53, 0x3E, 
    0x00, 0x00, 0x00, 0x00, 0x42, 0xFF, 0xFF, 0xFF, 
    0x04, 0x00, 0x00, 0x00, 0x08, 0x00, 0x00, 0x00, 
    0xFF, 0xFF, 0xFF, 0xFF, 0xB4, 0x06, 0x00, 0x00, 
    0x00, 0x00, 0x00, 0x00, 0x20, 0xF8, 0xFF, 0xFF, 
    0x00, 0x00, 0x00, 0x00, 0x00, 0x00, 0x00, 0x00, 
    0x00, 0x00, 0x00, 0x00, 0x30, 0xF8, 0xFF, 0xFF, 
    0x00, 0x00, 0x00, 0x00, 0x00, 0x00, 0x00, 0x00, 
    0x00, 0x00, 0x00, 0x00, 0x0F, 0x00, 0x00, 0x00, 
    0x4D, 0x4C, 0x49, 0x52, 0x20, 0x43, 0x6F, 0x6E, 
    0x76, 0x65, 0x72, 0x74, 0x65, 0x64, 0x2E, 0x00, 
    0x01, 0x00, 0x00, 0x00, 0x14, 0x00, 0x00, 0x00, 
    0x00, 0x00, 0x0E, 0x00, 0x18, 0x00, 0x04, 0x00, 
    0x08, 0x00, 0x0C, 0x00, 0x10, 0x00, 0x14, 0x00, 
    0x0E, 0x00, 0x00, 0x00, 0xF4, 0x01, 0x00, 0x00, 
    0xE8, 0x01, 0x00, 0x00, 0xDC, 0x01, 0x00, 0x00, 
    0x14, 0x00, 0x00, 0x00, 0x04, 0x00, 0x00, 0x00, 
    0x04, 0x00, 0x00, 0x00, 0x6D, 0x61, 0x69, 0x6E, 
    0x00, 0x00, 0x00, 0x00, 0x06, 0x00, 0x00, 0x00, 
    0x78, 0x01, 0x00, 0x00, 0x14, 0x01, 0x00, 0x00, 
    0xDC, 0x00, 0x00, 0x00, 0x88, 0x00, 0x00, 0x00, 
    0x40, 0x00, 0x00, 0x00, 0x04, 0x00, 0x00, 0x00, 
    0x0E, 0xFF, 0xFF, 0xFF, 0x00, 0x00, 0x00, 0x09, 
    0x04, 0x00, 0x00, 0x00, 0x24, 0x00, 0x00, 0x00, 
    0x18, 0x00, 0x00, 0x00, 0x0C, 0x00, 0x00, 0x00, 
    0x00, 0x00, 0x06, 0x00, 0x08, 0x00, 0x04, 0x00, 
    0x06, 0x00, 0x00, 0x00, 0x00, 0x00, 0x80, 0x3F, 
    0x01, 0x00, 0x00, 0x00, 0x0D, 0x00, 0x00, 0x00, 
    0x01, 0x00, 0x00, 0x00, 0x0C, 0x00, 0x00, 0x00, 
    0xCA, 0xFF, 0xFF, 0xFF, 0x00, 0x00, 0x00, 0x08, 
    0x03, 0x00, 0x00, 0x00, 0x18, 0x00, 0x00, 0x00, 
    0x0C, 0x00, 0x00, 0x00, 0x04, 0x00, 0x00, 0x00, 
    0xFC, 0xF8, 0xFF, 0xFF, 0x01, 0x00, 0x00, 0x00, 
    0x0C, 0x00, 0x00, 0x00, 0x03, 0x00, 0x00, 0x00, 
    0x0B, 0x00, 0x00, 0x00, 0x06, 0x00, 0x00, 0x00, 
    0x02, 0x00, 0x00, 0x00, 0x00, 0x00, 0x0E, 0x00, 
    0x18, 0x00, 0x08, 0x00, 0x0C, 0x00, 0x10, 0x00, 
    0x07, 0x00, 0x14, 0x00, 0x0E, 0x00, 0x00, 0x00, 
    0x00, 0x00, 0x00, 0x08, 0x03, 0x00, 0x00, 0x00, 
    0x28, 0x00, 0x00, 0x00, 0x1C, 0x00, 0x00, 0x00, 
    0x10, 0x00, 0x00, 0x00, 0x0C, 0x00, 0x08, 0x00, 
    0x06, 0x00, 0x00, 0x00, 0x00, 0x00, 0x07, 0x00, 
    0x0C, 0x00, 0x00, 0x00, 0x00, 0x00, 0x01, 0x01, 
    0x01, 0x00, 0x00, 0x00, 0x0B, 0x00, 0x00, 0x00, 
    0x03, 0x00, 0x00, 0x00, 0x0A, 0x00, 0x00, 0x00, 
    0x05, 0x00, 0x00, 0x00, 0x03, 0x00, 0x00, 0x00, 
    0x00, 0x00, 0x0A, 0x00, 0x10, 0x00, 0x04, 0x00, 
    0x08, 0x00, 0x0C, 0x00, 0x0A, 0x00, 0x00, 0x00, 
    0x02, 0x00, 0x00, 0x00, 0x10, 0x00, 0x00, 0x00, 
    0x04, 0x00, 0x00, 0x00, 0x01, 0x00, 0x00, 0x00, 
    0x0A, 0x00, 0x00, 0x00, 0x02, 0x00, 0x00, 0x00, 
    0x09, 0x00, 0x00, 0x00, 0x01, 0x00, 0x00, 0x00, 
    0x00, 0x00, 0x0E, 0x00, 0x1A, 0x00, 0x08, 0x00, 
    0x0C, 0x00, 0x10, 0x00, 0x07, 0x00, 0x14, 0x00, 
    0x0E, 0x00, 0x00, 0x00, 0x00, 0x00, 0x00, 0x05, 
    0x01, 0x00, 0x00, 0x00, 0x3C, 0x00, 0x00, 0x00, 
    0x30, 0x00, 0x00, 0x00, 0x14, 0x00, 0x00, 0x00, 
    0x00, 0x00, 0x0E, 0x00, 0x18, 0x00, 0x07, 0x00, 
    0x08, 0x00, 0x0C, 0x00, 0x10, 0x00, 0x14, 0x00, 
    0x0E, 0x00, 0x00, 0x00, 0x00, 0x00, 0x00, 0x01, 
    0x02, 0x00, 0x00, 0x00, 0x02, 0x00, 0x00, 0x00, 
    0x02, 0x00, 0x00, 0x00, 0x02, 0x00, 0x00, 0x00, 
    0x01, 0x00, 0x00, 0x00, 0x09, 0x00, 0x00, 0x00, 
    0x01, 0x00, 0x00, 0x00, 0x08, 0x00, 0x00, 0x00, 
    0x00, 0x00, 0x0E, 0x00, 0x14, 0x00, 0x00, 0x00, 
    0x08, 0x00, 0x0C, 0x00, 0x07, 0x00, 0x10, 0x00, 
    0x0E, 0x00, 0x00, 0x00, 0x00, 0x00, 0x00, 0x01, 
    0x30, 0x00, 0x00, 0x00, 0x24, 0x00, 0x00, 0x00, 
    0x10, 0x00, 0x00, 0x00, 0x0C, 0x00, 0x10, 0x00, 
    0x06, 0x00, 0x08, 0x00, 0x0C, 0x00, 0x07, 0x00, 
    0x0C, 0x00, 0x00, 0x00, 0x00, 0x00, 0x01, 0x01, 
    0x01, 0x00, 0x00, 0x00, 0x01, 0x00, 0x00, 0x00, 
    0x01, 0x00, 0x00, 0x00, 0x08, 0x00, 0x00, 0x00, 
    0x03, 0x00, 0x00, 0x00, 0x00, 0x00, 0x00, 0x00, 
    0x07, 0x00, 0x00, 0x00, 0x04, 0x00, 0x00, 0x00, 
    0x01, 0x00, 0x00, 0x00, 0x0D, 0x00, 0x00, 0x00, 
    0x01, 0x00, 0x00, 0x00, 0x00, 0x00, 0x00, 0x00, 
    0x0E, 0x00, 0x00, 0x00, 0x6C, 0x05, 0x00, 0x00, 
    0x10, 0x05, 0x00, 0x00, 0xA4, 0x04, 0x00, 0x00, 
    0x38, 0x04, 0x00, 0x00, 0xDC, 0x03, 0x00, 0x00, 
    0x6C, 0x03, 0x00, 0x00, 0x24, 0x03, 0x00, 0x00, 
    0xD4, 0x02, 0x00, 0x00, 0x0C, 0x02, 0x00, 0x00, 
    0x9C, 0x01, 0x00, 0x00, 0x44, 0x01, 0x00, 0x00, 
    0xC0, 0x00, 0x00, 0x00, 0x4C, 0x00, 0x00, 0x00, 
    0x04, 0x00, 0x00, 0x00, 0xE0, 0xFA, 0xFF, 0xFF, 
    0x34, 0x00, 0x00, 0x00, 0x0E, 0x00, 0x00, 0x00, 
    0x1C, 0x00, 0x00, 0x00, 0x14, 0x00, 0x00, 0x00, 
    0x04, 0x00, 0x00, 0x00, 0x02, 0x00, 0x00, 0x00, 
    0xFF, 0xFF, 0xFF, 0xFF, 0x04, 0x00, 0x00, 0x00, 
    0xC4, 0xFA, 0xFF, 0xFF, 0x08, 0x00, 0x00, 0x00, 
    0x49, 0x64, 0x65, 0x6E, 0x74, 0x69, 0x74, 0x79, 
    0x00, 0x00, 0x00, 0x00, 0x02, 0x00, 0x00, 0x00, 
    0x01, 0x00, 0x00, 0x00, 0x04, 0x00, 0x00, 0x00, 
    0x24, 0xFB, 0xFF, 0xFF, 0x60, 0x00, 0x00, 0x00, 
    0x0D, 0x00, 0x00, 0x00, 0x1C, 0x00, 0x00, 0x00, 
    0x14, 0x00, 0x00, 0x00, 0x04, 0x00, 0x00, 0x00, 
    0x02, 0x00, 0x00, 0x00, 0xFF, 0xFF, 0xFF, 0xFF, 
    0x04, 0x00, 0x00, 0x00, 0x08, 0xFB, 0xFF, 0xFF, 
    0x34, 0x00, 0x00, 0x00, 0x73, 0x65, 0x71, 0x75, 
    0x65, 0x6E, 0x74, 0x69, 0x61, 0x6C, 0x2F, 0x64, 
    0x65, 0x6E, 0x73, 0x65, 0x5F, 0x31, 0x2F, 0x4D, 
    0x61, 0x74, 0x4D, 0x75, 0x6C, 0x3B, 0x73, 0x65, 
    0x71, 0x75, 0x65, 0x6E, 0x74, 0x69, 0x61, 0x6C, 
    0x2F, 0x64, 0x65, 0x6E, 0x73, 0x65, 0x5F, 0x31, 
    0x2F, 0x42, 0x69, 0x61, 0x73, 0x41, 0x64, 0x64, 
    0x00, 0x00, 0x00, 0x00, 0x02, 0x00, 0x00, 0x00, 
    0x01, 0x00, 0x00, 0x00, 0x04, 0x00, 0x00, 0x00, 
    0x94, 0xFB, 0xFF, 0xFF, 0x70, 0x00, 0x00, 0x00, 
    0x0C, 0x00, 0x00, 0x00, 0x1C, 0x00, 0x00, 0x00, 
    0x14, 0x00, 0x00, 0x00, 0x04, 0x00, 0x00, 0x00, 
    0x02, 0x00, 0x00, 0x00, 0xFF, 0xFF, 0xFF, 0xFF, 
    0x05, 0x00, 0x00, 0x00, 0x78, 0xFB, 0xFF, 0xFF, 
    0x46, 0x00, 0x00, 0x00, 0x73, 0x65, 0x71, 0x75, 
    0x65, 0x6E, 0x74, 0x69, 0x61, 0x6C, 0x2F, 0x64, 
    0x65, 0x6E, 0x73, 0x65, 0x2F, 0x4D, 0x61, 0x74, 
    0x4D, 0x75, 0x6C, 0x3B, 0x73, 0x65, 0x71, 0x75, 
    0x65, 0x6E, 0x74, 0x69, 0x61, 0x6C, 0x2F, 0x64, 
    0x65, 0x6E, 0x73, 0x65, 0x2F, 0x52, 0x65, 0x6C, 
    0x75, 0x3B, 0x73, 0x65, 0x71, 0x75, 0x65, 0x6E, 
    0x74, 0x69, 0x61, 0x6C, 0x2F, 0x64, 0x65, 0x6E, 
    0x73, 0x65, 0x2F, 0x42, 0x69, 0x61, 0x73, 0x41, 
    0x64, 0x64, 0x00, 0x00, 0x02, 0x00, 0x00, 0x00, 
    0x01, 0x00, 0x00, 0x00, 0x05, 0x00, 0x00, 0x00, 
    0x14, 0xFC, 0xFF, 0xFF, 0x44, 0x00, 0x00, 0x00, 
    0x0B, 0x00, 0x00, 0x00, 0x1C, 0x00, 0x00, 0x00, 
    0x14, 0x00, 0x00, 0x00, 0x04, 0x00, 0x00, 0x00, 
    0x02, 0x00, 0x00, 0x00, 0xFF, 0xFF, 0xFF, 0xFF, 
    0xB4, 0x06, 0x00, 0x00, 0xF8, 0xFB, 0xFF, 0xFF, 
    0x1A, 0x00, 0x00, 0x00, 0x73, 0x65, 0x71, 0x75, 
    0x65, 0x6E, 0x74, 0x69, 0x61, 0x6C, 0x2F, 0x66, 
    0x6C, 0x61, 0x74, 0x74, 0x65, 0x6E, 0x2F, 0x52, 
    0x65, 0x73, 0x68, 0x61, 0x70, 0x65, 0x00, 0x00, 
    0x02, 0x00, 0x00, 0x00, 0x01, 0x00, 0x00, 0x00, 
    0xB4, 0x06, 0x00, 0x00, 0x68, 0xFC, 0xFF, 0xFF, 
    0x54, 0x00, 0x00, 0x00, 0x0A, 0x00, 0x00, 0x00, 
    0x24, 0x00, 0x00, 0x00, 0x1C, 0x00, 0x00, 0x00, 
    0x04, 0x00, 0x00, 0x00, 0x04, 0x00, 0x00, 0x00, 
    0xFF, 0xFF, 0xFF, 0xFF, 0x0D, 0x00, 0x00, 0x00, 
    0x16, 0x00, 0x00, 0x00, 0x06, 0x00, 0x00, 0x00, 
    0x54, 0xFC, 0xFF, 0xFF, 0x20, 0x00, 0x00, 0x00, 
    0x73, 0x65, 0x71, 0x75, 0x65, 0x6E, 0x74, 0x69, 
    0x61, 0x6C, 0x2F, 0x6D, 0x61, 0x78, 0x5F, 0x70, 
    0x6F, 0x6F, 0x6C, 0x69, 0x6E, 0x67, 0x32, 0x64, 
    0x2F, 0x4D, 0x61, 0x78, 0x50, 0x6F, 0x6F, 0x6C, 
    0x00, 0x00, 0x00, 0x00, 0x04, 0x00, 0x00, 0x00, 
    0x01, 0x00, 0x00, 0x00, 0x0D, 0x00, 0x00, 0x00, 
    0x16, 0x00, 0x00, 0x00, 0x06, 0x00, 0x00, 0x00, 
    0xD4, 0xFC, 0xFF, 0xFF, 0xAC, 0x00, 0x00, 0x00, 
    0x09, 0x00, 0x00, 0x00, 0x24, 0x00, 0x00, 0x00, 
    0x1C, 0x00, 0x00, 0x00, 0x04, 0x00, 0x00, 0x00, 
    0x04, 0x00, 0x00, 0x00, 0xFF, 0xFF, 0xFF, 0xFF, 
    0x1A, 0x00, 0x00, 0x00, 0x2C, 0x00, 0x00, 0x00, 
    0x06, 0x00, 0x00, 0x00, 0xC0, 0xFC, 0xFF, 0xFF, 
    0x7B, 0x00, 0x00, 0x00, 0x73, 0x65, 0x71, 0x75, 
    0x65, 0x6E, 0x74, 0x69, 0x61, 0x6C, 0x2F, 0x63, 
    0x6F, 0x6E, 0x76, 0x32, 0x64, 0x2F, 0x52, 0x65, 
    0x6C, 0x75, 0x3B, 0x73, 0x65, 0x71, 0x75, 0x65, 
    0x6E, 0x74, 0x69, 0x61, 0x6C, 0x2F, 0x63, 0x6F, 
    0x6E, 0x76, 0x32, 0x64, 0x2F, 0x42, 0x69, 0x61, 
    0x73, 0x41, 0x64, 0x64, 0x3B, 0x73, 0x65, 0x71, 
    0x75, 0x65, 0x6E, 0x74, 0x69, 0x61, 0x6C, 0x2F, 
    0x63, 0x6F, 0x6E, 0x76, 0x32, 0x64, 0x2F, 0x43, 
    0x6F, 0x6E, 0x76, 0x32, 0x44, 0x3B, 0x73, 0x65, 
    0x71, 0x75, 0x65, 0x6E, 0x74, 0x69, 0x61, 0x6C, 
    0x2F, 0x63, 0x6F, 0x6E, 0x76, 0x32, 0x64, 0x2F, 
    0x42, 0x69, 0x61, 0x73, 0x41, 0x64, 0x64, 0x2F, 
    0x52, 0x65, 0x61, 0x64, 0x56, 0x61, 0x72, 0x69, 
    0x61, 0x62, 0x6C, 0x65, 0x4F, 0x70, 0x2F, 0x72, 
    0x65, 0x73, 0x6F, 0x75, 0x72, 0x63, 0x65, 0x00, 
    0x04, 0x00, 0x00, 0x00, 0x01, 0x00, 0x00, 0x00, 
    0x1A, 0x00, 0x00, 0x00, 0x2C, 0x00, 0x00, 0x00, 
    0x06, 0x00, 0x00, 0x00, 0x52, 0xFE, 0xFF, 0xFF, 
    0x34, 0x00, 0x00, 0x00, 0x08, 0x00, 0x00, 0x00, 
    0x0C, 0x00, 0x00, 0x00, 0x04, 0x00, 0x00, 0x00, 
    0x6C, 0xFD, 0xFF, 0xFF, 0x18, 0x00, 0x00, 0x00, 
    0x73, 0x65, 0x71, 0x75, 0x65, 0x6E, 0x74, 0x69, 
    0x61, 0x6C, 0x2F, 0x63, 0x6F, 0x6E, 0x76, 0x32, 
    0x64, 0x2F, 0x43, 0x6F, 0x6E, 0x76, 0x32, 0x44, 
    0x00, 0x00, 0x00, 0x00, 0x04, 0x00, 0x00, 0x00, 
    0x06, 0x00, 0x00, 0x00, 0x03, 0x00, 0x00, 0x00, 
    0x03, 0x00, 0x00, 0x00, 0x01, 0x00, 0x00, 0x00, 
    0x9E, 0xFE, 0xFF, 0xFF, 0x34, 0x00, 0x00, 0x00, 
    0x07, 0x00, 0x00, 0x00, 0x0C, 0x00, 0x00, 0x00, 
    0x04, 0x00, 0x00, 0x00, 0xB8, 0xFD, 0xFF, 0xFF, 
    0x19, 0x00, 0x00, 0x00, 0x73, 0x65, 0x71, 0x75, 
    0x65, 0x6E, 0x74, 0x69, 0x61, 0x6C, 0x2F, 0x64, 
    0x65, 0x6E, 0x73, 0x65, 0x5F, 0x31, 0x2F, 0x4D, 
    0x61, 0x74, 0x4D, 0x75, 0x6C, 0x00, 0x00, 0x00, 
    0x02, 0x00, 0x00, 0x00, 0x04, 0x00, 0x00, 0x00, 
    0x05, 0x00, 0x00, 0x00, 0x7A, 0xFE, 0xFF, 0xFF, 
    0x00, 0x00, 0x00, 0x09, 0x58, 0x00, 0x00, 0x00, 
    0x06, 0x00, 0x00, 0x00, 0x34, 0x00, 0x00, 0x00, 
    0x10, 0x00, 0x00, 0x00, 0x0C, 0x00, 0x0C, 0x00, 
    0x00, 0x00, 0x00, 0x00, 0x04, 0x00, 0x08, 0x00, 
    0x0C, 0x00, 0x00, 0x00, 0x14, 0x00, 0x00, 0x00, 
    0x04, 0x00, 0x00, 0x00, 0x01, 0x00, 0x00, 0x00, 
    0x00, 0x00, 0x00, 0x00, 0x00, 0x00, 0x00, 0x00, 
    0x01, 0x00, 0x00, 0x00, 0xD2, 0x86, 0x01, 0x3B, 
    0x17, 0x00, 0x00, 0x00, 0x73, 0x65, 0x71, 0x75, 
    0x65, 0x6E, 0x74, 0x69, 0x61, 0x6C, 0x2F, 0x64, 
    0x65, 0x6E, 0x73, 0x65, 0x2F, 0x4D, 0x61, 0x74, 
    0x4D, 0x75, 0x6C, 0x00, 0x02, 0x00, 0x00, 0x00, 
    0x05, 0x00, 0x00, 0x00, 0xB4, 0x06, 0x00, 0x00, 
    0x4E, 0xFF, 0xFF, 0xFF, 0x4C, 0x00, 0x00, 0x00, 
    0x05, 0x00, 0x00, 0x00, 0x0C, 0x00, 0x00, 0x00, 
    0x04, 0x00, 0x00, 0x00, 0x68, 0xFE, 0xFF, 0xFF, 
    0x31, 0x00, 0x00, 0x00, 0x73, 0x65, 0x71, 0x75, 
    0x65, 0x6E, 0x74, 0x69, 0x61, 0x6C, 0x2F, 0x63, 
    0x6F, 0x6E, 0x76, 0x32, 0x64, 0x2F, 0x42, 0x69, 
    0x61, 0x73, 0x41, 0x64, 0x64, 0x2F, 0x52, 0x65, 
    0x61, 0x64, 0x56, 0x61, 0x72, 0x69, 0x61, 0x62, 
    0x6C, 0x65, 0x4F, 0x70, 0x2F, 0x72, 0x65, 0x73, 
    0x6F, 0x75, 0x72, 0x63, 0x65, 0x00, 0x00, 0x00, 
    0x01, 0x00, 0x00, 0x00, 0x06, 0x00, 0x00, 0x00, 
    0xA6, 0xFF, 0xFF, 0xFF, 0x4C, 0x00, 0x00, 0x00, 
    0x04, 0x00, 0x00, 0x00, 0x0C, 0x00, 0x00, 0x00, 
    0x04, 0x00, 0x00, 0x00, 0xC0, 0xFE, 0xFF, 0xFF, 
    0x30, 0x00, 0x00, 0x00, 0x73, 0x65, 0x71, 0x75, 
    0x65, 0x6E, 0x74, 0x69, 0x61, 0x6C, 0x2F, 0x64, 
    0x65, 0x6E, 0x73, 0x65, 0x2F, 0x42, 0x69, 0x61, 
    0x73, 0x41, 0x64, 0x64, 0x2F, 0x52, 0x65, 0x61, 
    0x64, 0x56, 0x61, 0x72, 0x69, 0x61, 0x62, 0x6C, 
    0x65, 0x4F, 0x70, 0x2F, 0x72, 0x65, 0x73, 0x6F, 
    0x75, 0x72, 0x63, 0x65, 0x00, 0x00, 0x00, 0x00, 
    0x01, 0x00, 0x00, 0x00, 0x05, 0x00, 0x00, 0x00, 
    0x00, 0x00, 0x0E, 0x00, 0x14, 0x00, 0x04, 0x00, 
    0x00, 0x00, 0x08, 0x00, 0x0C, 0x00, 0x10, 0x00, 
    0x0E, 0x00, 0x00, 0x00, 0x4C, 0x00, 0x00, 0x00, 
    0x03, 0x00, 0x00, 0x00, 0x0C, 0x00, 0x00, 0x00, 
    0x04, 0x00, 0x00, 0x00, 0x28, 0xFF, 0xFF, 0xFF, 
    0x32, 0x00, 0x00, 0x00, 0x73, 0x65, 0x71, 0x75, 
    0x65, 0x6E, 0x74, 0x69, 0x61, 0x6C, 0x2F, 0x64, 
    0x65, 0x6E, 0x73, 0x65, 0x5F, 0x31, 0x2F, 0x42, 
    0x69, 0x61, 0x73, 0x41, 0x64, 0x64, 0x2F, 0x52, 
    0x65, 0x61, 0x64, 0x56, 0x61, 0x72, 0x69, 0x61, 
    0x62, 0x6C, 0x65, 0x4F, 0x70, 0x2F, 0x72, 0x65, 
    0x73, 0x6F, 0x75, 0x72, 0x63, 0x65, 0x00, 0x00, 
    0x01, 0x00, 0x00, 0x00, 0x04, 0x00, 0x00, 0x00, 
    0x00, 0x00, 0x0E, 0x00, 0x18, 0x00, 0x08, 0x00, 
    0x07, 0x00, 0x0C, 0x00, 0x10, 0x00, 0x14, 0x00, 
    0x0E, 0x00, 0x00, 0x00, 0x00, 0x00, 0x00, 0x02, 
    0x34, 0x00, 0x00, 0x00, 0x02, 0x00, 0x00, 0x00, 
    0x0C, 0x00, 0x00, 0x00, 0x04, 0x00, 0x00, 0x00, 
    0x94, 0xFF, 0xFF, 0xFF, 0x18, 0x00, 0x00, 0x00, 
    0x73, 0x65, 0x71, 0x75, 0x65, 0x6E, 0x74, 0x69, 
    0x61, 0x6C, 0x2F, 0x66, 0x6C, 0x61, 0x74, 0x74, 
    0x65, 0x6E, 0x2F, 0x43, 0x6F, 0x6E, 0x73, 0x74, 
    0x00, 0x00, 0x00, 0x00, 0x01, 0x00, 0x00, 0x00, 
    0x02, 0x00, 0x00, 0x00, 0x14, 0x00, 0x18, 0x00, 
    0x04, 0x00, 0x00, 0x00, 0x08, 0x00, 0x0C, 0x00, 
    0x10, 0x00, 0x00, 0x00, 0x00, 0x00, 0x14, 0x00, 
    0x14, 0x00, 0x00, 0x00, 0x44, 0x00, 0x00, 0x00, 
    0x01, 0x00, 0x00, 0x00, 0x28, 0x00, 0x00, 0x00, 
    0x20, 0x00, 0x00, 0x00, 0x04, 0x00, 0x00, 0x00, 
    0x04, 0x00, 0x00, 0x00, 0xFF, 0xFF, 0xFF, 0xFF, 
    0x1C, 0x00, 0x00, 0x00, 0x2E, 0x00, 0x00, 0x00, 
    0x01, 0x00, 0x00, 0x00, 0x04, 0x00, 0x04, 0x00, 
    0x04, 0x00, 0x00, 0x00, 0x0C, 0x00, 0x00, 0x00, 
    0x63, 0x6F, 0x6E, 0x76, 0x32, 0x64, 0x5F, 0x69, 
    0x6E, 0x70, 0x75, 0x74, 0x00, 0x00, 0x00, 0x00, 
    0x04, 0x00, 0x00, 0x00, 0x01, 0x00, 0x00, 0x00, 
    0x1C, 0x00, 0x00, 0x00, 0x2E, 0x00, 0x00, 0x00, 
    0x01, 0x00, 0x00, 0x00, 0x05, 0x00, 0x00, 0x00, 
    0x60, 0x00, 0x00, 0x00, 0x44, 0x00, 0x00, 0x00, 
    0x28, 0x00, 0x00, 0x00, 0x14, 0x00, 0x00, 0x00, 
    0x04, 0x00, 0x00, 0x00, 0xD8, 0xFF, 0xFF, 0xFF, 
    0x00, 0x00, 0x00, 0x19, 0x19, 0x00, 0x00, 0x00, 
    0xCC, 0xFF, 0xFF, 0xFF, 0x00, 0x00, 0x00, 0x09, 
    0x09, 0x00, 0x00, 0x00, 0x09, 0x00, 0x00, 0x00, 
    0xF4, 0xFF, 0xFF, 0xFF, 0x00, 0x00, 0x00, 0x16, 
    0x16, 0x00, 0x00, 0x00, 0x0C, 0x00, 0x0C, 0x00, 
    0x07, 0x00, 0x00, 0x00, 0x00, 0x00, 0x08, 0x00, 
    0x0C, 0x00, 0x00, 0x00, 0x00, 0x00, 0x00, 0x11, 
    0x11, 0x00, 0x00, 0x00, 0x0C, 0x00, 0x10, 0x00, 
    0x07, 0x00, 0x00, 0x00, 0x08, 0x00, 0x0C, 0x00, 
    0x0C, 0x00, 0x00, 0x00, 0x00, 0x00, 0x00, 0x03, 
    0x05, 0x00, 0x00, 0x00, 0x03, 0x00, 0x00, 0x00
};

unsigned int model_len = 11552;